// 自动生成的工业 PdM 模型
// 包含 1665 个参数的 1D CNN

const unsigned char g_pdm_model[] = {
  0x1c, 0x00, 0x00, 0x00, 0x54, 0x46, 0x4c, 0x33, 0x14, 0x00, 0x20, 0x00,
  0x1c, 0x00, 0x18, 0x00, 0x14, 0x00, 0x10, 0x00, 0x0c, 0x00, 0x00, 0x00,
  0x08, 0x00, 0x04, 0x00, 0x14, 0x00, 0x00, 0x00, 0x1c, 0x00, 0x00, 0x00,
  0x8c, 0x00, 0x00, 0x00, 0xe4, 0x00, 0x00, 0x00, 0xcc, 0x1c, 0x00, 0x00,
  0xdc, 0x1c, 0x00, 0x00, 0x34, 0x2a, 0x00, 0x00, 0x03, 0x00, 0x00, 0x00,
  0x01, 0x00, 0x00, 0x00, 0x04, 0x00, 0x00, 0x00, 0xfe, 0xe0, 0xff, 0xff,
  0x0c, 0x00, 0x00, 0x00, 0x1c, 0x00, 0x00, 0x00, 0x3c, 0x00, 0x00, 0x00,
  0x0f, 0x00, 0x00, 0x00, 0x73, 0x65, 0x72, 0x76, 0x69, 0x6e, 0x67, 0x5f,
  0x64, 0x65, 0x66, 0x61, 0x75, 0x6c, 0x74, 0x00, 0x01, 0x00, 0x00, 0x00,
  0x04, 0x00, 0x00, 0x00, 0x90, 0xff, 0xff, 0xff, 0x17, 0x00, 0x00, 0x00,
  0x04, 0x00, 0x00, 0x00, 0x08, 0x00, 0x00, 0x00, 0x6f, 0x75, 0x74, 0x70,
  0x75, 0x74, 0x5f, 0x30, 0x00, 0x00, 0x00, 0x00, 0x01, 0x00, 0x00, 0x00,
  0x04, 0x00, 0x00, 0x00, 0x36, 0xe4, 0xff, 0xff, 0x04, 0x00, 0x00, 0x00,
  0x0c, 0x00, 0x00, 0x00, 0x6b, 0x65, 0x72, 0x61, 0x73, 0x5f, 0x74, 0x65,
  0x6e, 0x73, 0x6f, 0x72, 0x00, 0x00, 0x00, 0x00, 0x02, 0x00, 0x00, 0x00,
  0x34, 0x00, 0x00, 0x00, 0x04, 0x00, 0x00, 0x00, 0xdc, 0xff, 0xff, 0xff,
  0x1a, 0x00, 0x00, 0x00, 0x04, 0x00, 0x00, 0x00, 0x13, 0x00, 0x00, 0x00,
  0x43, 0x4f, 0x4e, 0x56, 0x45, 0x52, 0x53, 0x49, 0x4f, 0x4e, 0x5f, 0x4d,
  0x45, 0x54, 0x41, 0x44, 0x41, 0x54, 0x41, 0x00, 0x08, 0x00, 0x0c, 0x00,
  0x08, 0x00, 0x04, 0x00, 0x08, 0x00, 0x00, 0x00, 0x19, 0x00, 0x00, 0x00,
  0x04, 0x00, 0x00, 0x00, 0x13, 0x00, 0x00, 0x00, 0x6d, 0x69, 0x6e, 0x5f,
  0x72, 0x75, 0x6e, 0x74, 0x69, 0x6d, 0x65, 0x5f, 0x76, 0x65, 0x72, 0x73,
  0x69, 0x6f, 0x6e, 0x00, 0x1b, 0x00, 0x00, 0x00, 0xe4, 0x1b, 0x00, 0x00,
  0xdc, 0x1b, 0x00, 0x00, 0x4c, 0x1b, 0x00, 0x00, 0xf4, 0x1a, 0x00, 0x00,
  0xe0, 0x1a, 0x00, 0x00, 0xc4, 0x1a, 0x00, 0x00, 0xa8, 0x1a, 0x00, 0x00,
  0x8c, 0x1a, 0x00, 0x00, 0x7c, 0x02, 0x00, 0x00, 0xac, 0x01, 0x00, 0x00,
  0x1c, 0x01, 0x00, 0x00, 0x08, 0x01, 0x00, 0x00, 0xf4, 0x00, 0x00, 0x00,
  0xec, 0x00, 0x00, 0x00, 0xe4, 0x00, 0x00, 0x00, 0xdc, 0x00, 0x00, 0x00,
  0xd4, 0x00, 0x00, 0x00, 0xcc, 0x00, 0x00, 0x00, 0xc4, 0x00, 0x00, 0x00,
  0xbc, 0x00, 0x00, 0x00, 0xb4, 0x00, 0x00, 0x00, 0xac, 0x00, 0x00, 0x00,
  0xa4, 0x00, 0x00, 0x00, 0x9c, 0x00, 0x00, 0x00, 0x94, 0x00, 0x00, 0x00,
  0x74, 0x00, 0x00, 0x00, 0x04, 0x00, 0x00, 0x00, 0x1e, 0xe5, 0xff, 0xff,
  0x04, 0x00, 0x00, 0x00, 0x60, 0x00, 0x00, 0x00, 0x10, 0x00, 0x00, 0x00,
  0x00, 0x00, 0x00, 0x00, 0x08, 0x00, 0x0e, 0x00, 0x08, 0x00, 0x04, 0x00,
  0x08, 0x00, 0x00, 0x00, 0x10, 0x00, 0x00, 0x00, 0x24, 0x00, 0x00, 0x00,
  0x00, 0x00, 0x06, 0x00, 0x08, 0x00, 0x04, 0x00, 0x06, 0x00, 0x00, 0x00,
  0x04, 0x00, 0x00, 0x00, 0x00, 0x00, 0x00, 0x00, 0x0c, 0x00, 0x18, 0x00,
  0x14, 0x00, 0x10, 0x00, 0x0c, 0x00, 0x04, 0x00, 0x0c, 0x00, 0x00, 0x00,
  0xd7, 0x1b, 0xdb, 0x10, 0xb5, 0x00, 0x42, 0x20, 0x02, 0x00, 0x00, 0x00,
  0x02, 0x00, 0x00, 0x00, 0x04, 0x00, 0x00, 0x00, 0x06, 0x00, 0x00, 0x00,
  0x32, 0x2e, 0x32, 0x30, 0x2e, 0x30, 0x00, 0x00, 0x8a, 0xe5, 0xff, 0xff,
  0x04, 0x00, 0x00, 0x00, 0x10, 0x00, 0x00, 0x00, 0x31, 0x2e, 0x31, 0x34,
  0x2e, 0x30, 0x00, 0x00, 0x00, 0x00, 0x00, 0x00, 0x00, 0x00, 0x00, 0x00,
  0xd8, 0xd7, 0xff, 0xff, 0xdc, 0xd7, 0xff, 0xff, 0xe0, 0xd7, 0xff, 0xff,
  0xe4, 0xd7, 0xff, 0xff, 0xe8, 0xd7, 0xff, 0xff, 0xec, 0xd7, 0xff, 0xff,
  0xf0, 0xd7, 0xff, 0xff, 0xf4, 0xd7, 0xff, 0xff, 0xf8, 0xd7, 0xff, 0xff,
  0xfc, 0xd7, 0xff, 0xff, 0x00, 0xd8, 0xff, 0xff, 0x04, 0xd8, 0xff, 0xff,
  0xd6, 0xe5, 0xff, 0xff, 0x04, 0x00, 0x00, 0x00, 0x04, 0x00, 0x00, 0x00,
  0xfd, 0xff, 0xff, 0xff, 0xe6, 0xe5, 0xff, 0xff, 0x04, 0x00, 0x00, 0x00,
  0x04, 0x00, 0x00, 0x00, 0x01, 0x00, 0x00, 0x00, 0xf6, 0xe5, 0xff, 0xff,
  0x04, 0x00, 0x00, 0x00, 0x80, 0x00, 0x00, 0x00, 0xb6, 0x16, 0x39, 0xbf,
  0xe7, 0x1c, 0xec, 0x3e, 0x30, 0x09, 0x46, 0xbf, 0xfd, 0xdc, 0x4b, 0x3f,
  0xe0, 0x70, 0x1c, 0x3f, 0x66, 0x0c, 0x24, 0x3f, 0xe0, 0xc9, 0xff, 0x3e,
  0x55, 0x1a, 0x4c, 0xbf, 0xab, 0x9c, 0x02, 0x3f, 0x53, 0xf6, 0x2e, 0x3f,
  0x44, 0x36, 0x22, 0x3f, 0x3f, 0x07, 0x38, 0x3f, 0xe7, 0xb8, 0x0a, 0x3f,
  0xd9, 0x87, 0x22, 0x3f, 0x20, 0x91, 0x31, 0xbe, 0x0b, 0xa6, 0x0a, 0x3f,
  0x8b, 0xf8, 0x54, 0x3f, 0x23, 0x6f, 0x86, 0x3e, 0x2b, 0xce, 0x52, 0x3f,
  0x8e, 0xe3, 0xeb, 0x3e, 0x3b, 0xc0, 0x16, 0x3f, 0x9e, 0x93, 0xfa, 0x3e,
  0x40, 0xaa, 0x2f, 0x3f, 0x9c, 0xf7, 0x3e, 0x3f, 0x0e, 0x62, 0xff, 0x3e,
  0xee, 0x27, 0x2c, 0xbf, 0x1e, 0xd0, 0x79, 0xbf, 0x99, 0x58, 0x5d, 0x3e,
  0xda, 0x80, 0x88, 0xbe, 0xf4, 0x87, 0x53, 0xbf, 0xd7, 0x8c, 0x29, 0x3f,
  0xb7, 0x2a, 0x45, 0x3f, 0x82, 0xe6, 0xff, 0xff, 0x04, 0x00, 0x00, 0x00,
  0xc0, 0x00, 0x00, 0x00, 0x20, 0xc4, 0x11, 0xbf, 0xb8, 0xa1, 0x3c, 0xbf,
  0xcb, 0x50, 0x0f, 0xbf, 0xab, 0x93, 0x31, 0xbe, 0x9b, 0xcc, 0x41, 0x3f,
  0x83, 0x28, 0x4d, 0x3f, 0xca, 0x8a, 0x11, 0x3f, 0x95, 0x20, 0x3d, 0xbf,
  0x6d, 0x66, 0xf5, 0xbe, 0x98, 0xd5, 0x58, 0x3f, 0xff, 0x98, 0x34, 0x3f,
  0x26, 0x14, 0x60, 0xbe, 0xfd, 0x74, 0x13, 0x3f, 0xba, 0x3e, 0x1d, 0xbf,
  0x4c, 0xbb, 0x44, 0xbf, 0xf1, 0xcc, 0x86, 0xbe, 0x70, 0x05, 0x11, 0x3f,
  0x91, 0xfd, 0x30, 0x3f, 0xd4, 0xb3, 0x55, 0xbf, 0x2f, 0x7e, 0x40, 0xbf,
  0xc8, 0x16, 0x0b, 0x3f, 0x77, 0x1d, 0x58, 0xbf, 0x44, 0x0d, 0xdd, 0xbe,
  0xe6, 0x6d, 0x4c, 0xbf, 0x74, 0x67, 0x13, 0x3f, 0x27, 0x6e, 0x07, 0x3f,
  0x44, 0x2a, 0xb6, 0xbe, 0x8b, 0xad, 0x3d, 0xbf, 0xc3, 0x44, 0x1d, 0xbf,
  0x7b, 0x3e, 0x2c, 0x3f, 0x67, 0xf8, 0x2f, 0x3f, 0x8c, 0xd9, 0x3e, 0x3f,
  0xff, 0x74, 0xf1, 0xbe, 0xe0, 0x28, 0x00, 0x3f, 0x00, 0xa2, 0x2f, 0x3f,
  0x76, 0xf9, 0x1a, 0xbf, 0xed, 0xb5, 0x84, 0x3e, 0x95, 0x88, 0x2b, 0xbf,
  0x82, 0xa6, 0x38, 0xbf, 0xae, 0xc4, 0x39, 0x3e, 0x89, 0xf2, 0x8c, 0xbe,
  0x34, 0x44, 0xc7, 0xbe, 0x5c, 0x99, 0x20, 0x3f, 0xec, 0x7e, 0x2e, 0xbf,
  0x65, 0xdf, 0xed, 0xbe, 0x11, 0x81, 0x4b, 0xbf, 0x17, 0x0d, 0x0b, 0xbf,
  0xb9, 0x5d, 0xdd, 0x3e, 0x4e, 0xe7, 0xff, 0xff, 0x04, 0x00, 0x00, 0x00,
  0x00, 0x18, 0x00, 0x00, 0xd8, 0xe3, 0x25, 0xbf, 0xd8, 0xaa, 0xcb, 0xbe,
  0x9b, 0x0b, 0x0e, 0xbf, 0xea, 0xe8, 0xd0, 0xbe, 0xd7, 0x64, 0x25, 0xbf,
  0xbe, 0xa1, 0x1a, 0xbf, 0x28, 0xf7, 0xca, 0xbe, 0x8e, 0x47, 0x04, 0xbf,
  0xa6, 0x45, 0x09, 0xbf, 0x50, 0x43, 0xda, 0xbe, 0x33, 0x71, 0xcd, 0xbe,
  0x87, 0x47, 0x1b, 0xbf, 0x1b, 0xba, 0x3b, 0xbf, 0x43, 0x7f, 0x18, 0x3f,
  0xd3, 0xf0, 0x03, 0xbf, 0x80, 0xbe, 0xea, 0xbe, 0xab, 0xc7, 0xd9, 0xbe,
  0x4b, 0xa1, 0x0c, 0xbf, 0xef, 0x71, 0xf8, 0xbe, 0xc0, 0x83, 0x40, 0xbf,
  0xf5, 0xb6, 0x82, 0xbe, 0x13, 0x6a, 0x2e, 0xbf, 0x47, 0xb4, 0xad, 0xbe,
  0x58, 0xa3, 0xea, 0xbe, 0xb5, 0x56, 0x3e, 0xbf, 0x71, 0x5a, 0xf2, 0xbe,
  0xb4, 0xb6, 0x15, 0xbf, 0x83, 0xb3, 0x3e, 0xbf, 0x01, 0xb2, 0x05, 0xbf,
  0xb2, 0x7e, 0x26, 0x3f, 0x65, 0xa7, 0x1e, 0xbf, 0xcb, 0x81, 0x10, 0xbf,
  0x66, 0x4b, 0x01, 0xbf, 0x9e, 0x8b, 0xbe, 0xbe, 0x4d, 0x4e, 0xbb, 0xbe,
  0x3e, 0x35, 0x39, 0xbf, 0x0b, 0xf7, 0x20, 0xbf, 0xd8, 0x83, 0x2d, 0xbf,
  0xc0, 0x4a, 0xd9, 0xbe, 0x43, 0x4d, 0x3e, 0xbf, 0xed, 0x6c, 0x23, 0xbf,
  0x14, 0xd3, 0x09, 0xbf, 0xd4, 0x8e, 0x0d, 0xbf, 0x1a, 0x67, 0xc0, 0xbe,
  0xc2, 0xe1, 0x08, 0xbf, 0xad, 0x93, 0x51, 0x3f, 0x19, 0x3d, 0x26, 0xbf,
  0x57, 0xda, 0x9d, 0xbe, 0x83, 0xfa, 0x95, 0x3e, 0x63, 0x8e, 0xd7, 0x3e,
  0x19, 0x70, 0xdb, 0x3e, 0x5d, 0x98, 0xba, 0x3e, 0x5f, 0x3d, 0x13, 0x3f,
  0xb9, 0xaf, 0xef, 0x3e, 0x92, 0x31, 0xe2, 0x3e, 0xbe, 0x54, 0xf6, 0x3e,
  0x76, 0x19, 0x08, 0x3f, 0x7e, 0x51, 0x85, 0x3e, 0xf5, 0x42, 0x80, 0x3e,
  0x27, 0x60, 0x1c, 0x3f, 0x22, 0xb8, 0xb0, 0x3e, 0x4c, 0x8a, 0x97, 0x3d,
  0xfe, 0x55, 0x9d, 0x3e, 0x8e, 0xc5, 0x15, 0x3f, 0x3e, 0xf6, 0x16, 0x3f,
  0xa6, 0x78, 0x86, 0x3e, 0x0d, 0x83, 0x05, 0x3f, 0x44, 0xd7, 0xa7, 0x3e,
  0x17, 0x51, 0xa6, 0x3e, 0xcd, 0xb4, 0x06, 0x3f, 0x2b, 0xb6, 0xff, 0x3e,
  0x88, 0x23, 0xc9, 0x3e, 0x10, 0x1a, 0x05, 0x3f, 0xc3, 0x66, 0xd8, 0x3e,
  0xed, 0x86, 0x13, 0x3f, 0x1d, 0x20, 0x8b, 0x3e, 0xfa, 0x7e, 0xcb, 0x3e,
  0xd4, 0xda, 0x4d, 0xbc, 0x1f, 0x0d, 0x8c, 0x3e, 0x4b, 0x5c, 0x0f, 0x3f,
  0x69, 0xef, 0x87, 0x3e, 0x36, 0x01, 0xde, 0x3e, 0x36, 0x1a, 0x07, 0x3f,
  0x99, 0x5d, 0xdd, 0x3e, 0x28, 0x82, 0x0a, 0x3f, 0xa7, 0xe4, 0xd3, 0x3e,
  0xf4, 0xe2, 0x8a, 0x3e, 0xc7, 0xbf, 0x32, 0x3f, 0x76, 0x9e, 0x22, 0x3f,
  0x18, 0xd1, 0xd2, 0x3e, 0x53, 0x7f, 0x13, 0x3f, 0x58, 0x5f, 0x21, 0x3f,
  0xdf, 0x81, 0xb8, 0x3e, 0x70, 0xb5, 0x07, 0x3e, 0x9e, 0x13, 0x0a, 0x3f,
  0x82, 0x10, 0x0f, 0x3f, 0x54, 0xd8, 0xef, 0xbe, 0x8b, 0xa8, 0xdc, 0xbe,
  0x89, 0xef, 0x11, 0xbf, 0x0f, 0x9a, 0x2c, 0xbf, 0x3a, 0xfb, 0xe7, 0xbe,
  0x89, 0x5f, 0x20, 0xbf, 0xc4, 0x41, 0xd3, 0xbe, 0x91, 0x93, 0x25, 0xbf,
  0x66, 0x56, 0x25, 0xbf, 0x9f, 0x8e, 0xec, 0xbe, 0x94, 0xef, 0x26, 0xbf,
  0xed, 0xde, 0xe7, 0xbe, 0x70, 0x72, 0xd9, 0xbe, 0x59, 0xfc, 0x41, 0x3f,
  0x50, 0x91, 0xd5, 0xbe, 0xa5, 0x46, 0x16, 0xbf, 0x6f, 0x8e, 0x10, 0xbf,
  0xe7, 0x74, 0x24, 0xbf, 0x5a, 0x8f, 0xad, 0xbe, 0x0a, 0xba, 0x10, 0xbf,
  0x12, 0x90, 0xb9, 0xbe, 0x22, 0x74, 0x01, 0xbf, 0xb3, 0x8e, 0xc4, 0xbe,
  0x29, 0x7c, 0x0e, 0xbf, 0x07, 0xf9, 0xec, 0xbe, 0x2b, 0x9f, 0xc8, 0xbe,
  0x57, 0xae, 0x12, 0xbf, 0x66, 0x55, 0xfe, 0xbe, 0x73, 0x5d, 0x14, 0xbf,
  0xe4, 0x90, 0x49, 0x3f, 0xf1, 0x9f, 0x94, 0xbe, 0x43, 0x8c, 0xef, 0xbe,
  0x78, 0x5e, 0xbb, 0xbe, 0x88, 0xc4, 0x09, 0xbf, 0x14, 0x44, 0x8a, 0xbe,
  0x19, 0x87, 0x2d, 0xbf, 0xe8, 0x99, 0x0f, 0xbf, 0x29, 0x8f, 0xbf, 0xbe,
  0xae, 0x6c, 0x6f, 0xbe, 0xce, 0x5b, 0x0f, 0xbf, 0x81, 0x62, 0xdb, 0xbe,
  0xaa, 0x83, 0xf8, 0xbe, 0x8d, 0x31, 0xd4, 0xbe, 0x8f, 0xc4, 0xe5, 0xbe,
  0xd0, 0x51, 0x29, 0xbf, 0x8d, 0x7a, 0x31, 0x3f, 0x15, 0x80, 0xc6, 0xbe,
  0xc4, 0x76, 0x10, 0xbf, 0x1b, 0x8b, 0xbc, 0x3e, 0x6a, 0x5f, 0x3c, 0x3e,
  0xb8, 0x26, 0x8b, 0x3e, 0x94, 0xcb, 0x29, 0x3e, 0x28, 0xd8, 0x00, 0x3f,
  0xc7, 0x4e, 0xe0, 0x3e, 0x87, 0x04, 0xea, 0x3d, 0xf7, 0x38, 0x0c, 0x3f,
  0x44, 0x69, 0xa8, 0x3e, 0xa7, 0xe8, 0x12, 0x3e, 0x72, 0xc4, 0xe0, 0x3e,
  0xc9, 0xcf, 0x16, 0x3e, 0xa4, 0x04, 0x20, 0x3e, 0xce, 0x57, 0x97, 0xbc,
  0xc1, 0xd0, 0xf5, 0x3e, 0xbb, 0x4f, 0x90, 0x3e, 0xb7, 0x56, 0x01, 0x3e,
  0x60, 0x49, 0xe0, 0x3e, 0xc4, 0x8a, 0x8d, 0x3e, 0x0c, 0x7b, 0x8b, 0x3e,
  0x1b, 0x23, 0xfa, 0x3e, 0x16, 0x1b, 0x0a, 0x3f, 0x7b, 0xb0, 0x1c, 0x3e,
  0x64, 0xed, 0xa6, 0x3e, 0x52, 0x35, 0xd3, 0x3e, 0x21, 0x49, 0x5f, 0x3e,
  0x26, 0xea, 0xd1, 0x3e, 0xeb, 0x17, 0xcd, 0x3e, 0x08, 0x39, 0x85, 0x3e,
  0xc3, 0x02, 0xb8, 0xba, 0x8b, 0x4b, 0xcc, 0x3e, 0x15, 0x35, 0xae, 0x3e,
  0x8b, 0x04, 0x4f, 0x3e, 0xe7, 0x69, 0xe2, 0x3e, 0x20, 0x45, 0xbf, 0x3e,
  0x53, 0x8a, 0xf5, 0x3e, 0xcd, 0xca, 0x07, 0x3e, 0x93, 0x64, 0xee, 0x3e,
  0xf6, 0xc3, 0x91, 0x3e, 0x72, 0x6e, 0xf3, 0x3e, 0x70, 0x7d, 0xf5, 0x3e,
  0xb6, 0xbd, 0xf8, 0x3e, 0x36, 0x69, 0x9c, 0x3e, 0x14, 0x21, 0x8f, 0x3e,
  0xd9, 0x00, 0x38, 0x3e, 0xc3, 0xc7, 0x86, 0x3c, 0x02, 0x72, 0xf5, 0x3e,
  0xa6, 0x11, 0x4c, 0x3e, 0x8d, 0xcf, 0x01, 0x3f, 0xce, 0xbb, 0xcc, 0x3e,
  0x74, 0x31, 0xdc, 0x3e, 0x50, 0xf1, 0x87, 0x3e, 0x37, 0x35, 0x54, 0x3e,
  0x6b, 0xf6, 0xbb, 0x3e, 0x6c, 0x5c, 0xe6, 0x3e, 0xd9, 0x36, 0xbb, 0x3e,
  0xa8, 0x8b, 0x1b, 0x3f, 0xf3, 0x30, 0xcb, 0x3e, 0xc9, 0x02, 0xc1, 0x3e,
  0xdc, 0x78, 0xa0, 0x3e, 0x9e, 0x21, 0x0e, 0x3f, 0xe8, 0x7b, 0x4b, 0x3e,
  0xa0, 0x01, 0x74, 0x3e, 0xb0, 0x52, 0x61, 0x3e, 0xff, 0xa6, 0xa4, 0x3e,
  0x74, 0xcd, 0x50, 0x3e, 0x5e, 0xa7, 0xf8, 0x3e, 0x52, 0x62, 0xe8, 0x3e,
  0xed, 0x24, 0x91, 0x3e, 0xff, 0x36, 0x1b, 0x3f, 0xc1, 0x52, 0x0a, 0x3f,
  0x40, 0xbb, 0x28, 0x3f, 0xf3, 0x0c, 0xe8, 0x3e, 0xea, 0xb8, 0xe1, 0x3e,
  0x86, 0x4d, 0x83, 0x3e, 0xfe, 0x8e, 0x6a, 0x3e, 0x6a, 0xad, 0x67, 0x3e,
  0xc2, 0xe6, 0x2e, 0xbe, 0x8a, 0xa9, 0xd3, 0x3e, 0x07, 0xaa, 0x91, 0x3e,
  0x84, 0xf2, 0xca, 0x3e, 0x4f, 0x90, 0x76, 0x3e, 0x2d, 0x72, 0x6c, 0x3e,
  0xd5, 0x90, 0xec, 0x3e, 0xb3, 0x80, 0x9d, 0x3e, 0xec, 0x11, 0xcf, 0x3e,
  0x6e, 0x55, 0x4b, 0x3e, 0x27, 0x12, 0xf3, 0x3e, 0x27, 0xc3, 0xba, 0x3e,
  0xef, 0x76, 0x03, 0x3f, 0x49, 0xf4, 0x97, 0x3e, 0x35, 0x0a, 0xf4, 0x3e,
  0x18, 0x7b, 0x06, 0x3f, 0x9d, 0x9c, 0x95, 0x3c, 0x61, 0xf3, 0xf2, 0x3e,
  0xc5, 0xc3, 0x6b, 0x3e, 0x62, 0x44, 0xdc, 0x3e, 0xce, 0x74, 0x01, 0x3f,
  0x28, 0x63, 0xdd, 0x3e, 0x53, 0x35, 0xc9, 0x3e, 0x28, 0xc0, 0x82, 0x3e,
  0x9a, 0xb9, 0x8c, 0x3e, 0x29, 0x6c, 0x2f, 0x3e, 0xd7, 0x0e, 0xcb, 0x3e,
  0x07, 0x79, 0xe0, 0x3e, 0x2b, 0x02, 0x87, 0x3e, 0x16, 0xf4, 0xf8, 0x3e,
  0x1d, 0x38, 0x8a, 0x3e, 0x72, 0xdb, 0x88, 0x3e, 0xe7, 0x21, 0x0c, 0x3d,
  0x65, 0x9f, 0x00, 0x3f, 0xe2, 0x80, 0x48, 0x3e, 0xb0, 0x41, 0xf8, 0x3e,
  0xf3, 0x02, 0xbf, 0x3e, 0x4b, 0x7e, 0xa7, 0x3e, 0x8b, 0x40, 0xfc, 0x3e,
  0x9e, 0x0d, 0xc0, 0x3e, 0xa2, 0xa5, 0xa9, 0x3e, 0xb9, 0x71, 0xc9, 0x3e,
  0xda, 0x70, 0x02, 0x3f, 0xf9, 0x34, 0xfa, 0x3e, 0x5c, 0x86, 0x84, 0x3e,
  0x41, 0x1a, 0x9d, 0x3e, 0x63, 0x1a, 0x8e, 0x3e, 0x1e, 0xe2, 0x73, 0x3e,
  0x98, 0xba, 0x9e, 0xbd, 0x45, 0xc1, 0xd3, 0x3e, 0x14, 0xaf, 0x85, 0x3e,
  0x96, 0xda, 0x9d, 0x3e, 0x8e, 0xd2, 0x3b, 0x3e, 0x0a, 0x53, 0xb8, 0x3e,
  0x05, 0x73, 0x05, 0x3f, 0x47, 0xbe, 0x93, 0x3e, 0xae, 0x44, 0x86, 0x3e,
  0x96, 0xe9, 0xbe, 0x3e, 0x2e, 0x5b, 0x53, 0x3e, 0xce, 0xc3, 0xc8, 0x3e,
  0xf8, 0xaa, 0x95, 0x3e, 0x07, 0x43, 0x8a, 0x3e, 0x61, 0x51, 0xcf, 0x3e,
  0xcf, 0x93, 0x70, 0x3e, 0x8f, 0xf4, 0x03, 0x3e, 0x61, 0xd1, 0xbb, 0x3e,
  0x9d, 0x71, 0xfe, 0x3e, 0xfd, 0x6b, 0x06, 0x3f, 0xf6, 0x10, 0x00, 0x3f,
  0xd5, 0xe8, 0xb6, 0x3e, 0x7d, 0x47, 0xff, 0x3e, 0xe2, 0xc0, 0xf9, 0x3e,
  0x91, 0xf1, 0xc9, 0x3e, 0x5e, 0x08, 0xf1, 0x3e, 0xcb, 0xbd, 0x12, 0x3f,
  0x11, 0xa3, 0x18, 0x3f, 0x87, 0xc0, 0xb2, 0x3e, 0x44, 0x88, 0x4d, 0x3e,
  0xa2, 0xda, 0xf5, 0x3e, 0x10, 0xfa, 0xb7, 0x3e, 0xfb, 0xf5, 0x0f, 0x3d,
  0x7b, 0x51, 0x91, 0x3e, 0x12, 0xe3, 0xa9, 0x3e, 0xba, 0xcc, 0x89, 0x3e,
  0x2c, 0x4b, 0xed, 0x3e, 0xfa, 0xf0, 0x92, 0x3e, 0xa8, 0xf1, 0x6c, 0x3e,
  0x66, 0x1e, 0x52, 0x3e, 0x1f, 0x41, 0x1c, 0x3f, 0x6f, 0x0a, 0xa1, 0x3e,
  0xf4, 0x99, 0x08, 0x3f, 0xbd, 0x82, 0x82, 0x3e, 0x2b, 0x7d, 0x00, 0x3f,
  0xb8, 0x81, 0x46, 0x3e, 0xdb, 0xe3, 0x04, 0x3f, 0x7e, 0x19, 0xd3, 0x3e,
  0x7f, 0xdb, 0x58, 0xbd, 0x6d, 0xe8, 0xa4, 0x3e, 0xa9, 0x41, 0xdb, 0x3e,
  0x14, 0x9d, 0xe1, 0x3e, 0xa5, 0x3e, 0x9d, 0x3e, 0x75, 0x84, 0x92, 0x3e,
  0x76, 0x86, 0xbb, 0x3e, 0xd2, 0x87, 0x08, 0x3f, 0xd5, 0xd6, 0xe0, 0x3e,
  0x4a, 0x1b, 0x0b, 0x3f, 0xa8, 0x0c, 0x21, 0x3f, 0xba, 0x55, 0x9d, 0x3e,
  0x5a, 0x84, 0x00, 0x3f, 0xc6, 0x92, 0x3f, 0x3e, 0x74, 0xfc, 0xb5, 0x3e,
  0x24, 0x1b, 0xd0, 0x3e, 0x36, 0xbb, 0x1c, 0x3e, 0x16, 0x63, 0xfb, 0x3e,
  0xb8, 0xbb, 0x07, 0x3f, 0x8d, 0x45, 0x21, 0xbf, 0x38, 0xd1, 0x1a, 0xbf,
  0x4b, 0x41, 0x20, 0xbf, 0x77, 0xae, 0x1d, 0xbf, 0x9f, 0xa4, 0x05, 0xbf,
  0x7b, 0xfc, 0x95, 0xbe, 0x91, 0x7c, 0x3a, 0xbe, 0x78, 0xab, 0x18, 0xbf,
  0x71, 0xde, 0x19, 0xbf, 0x95, 0xd8, 0x58, 0xbe, 0x7b, 0xe7, 0x00, 0xbf,
  0x17, 0x63, 0xd0, 0xbe, 0x1c, 0x29, 0x02, 0xbf, 0xd2, 0xae, 0x09, 0x3f,
  0xf5, 0xbd, 0x97, 0xbe, 0x25, 0x82, 0x06, 0xbf, 0x95, 0xe6, 0xb2, 0xbe,
  0x6d, 0xd2, 0x9d, 0xbe, 0xee, 0xea, 0x20, 0xbf, 0x28, 0xe6, 0xfd, 0xbe,
  0x2a, 0x6f, 0xaa, 0xbe, 0x34, 0xb9, 0x26, 0xbf, 0x3b, 0x1b, 0xce, 0xbe,
  0x86, 0x59, 0xcb, 0xbe, 0x15, 0x90, 0x94, 0xbe, 0x3a, 0x6f, 0x0b, 0xbf,
  0x84, 0x2f, 0x9e, 0xbe, 0x9f, 0x3f, 0x14, 0xbf, 0xcf, 0x5e, 0x2b, 0xbf,
  0x7f, 0x23, 0xd9, 0x3e, 0xc4, 0x8d, 0x93, 0xbe, 0xf1, 0xe5, 0xb2, 0xbe,
  0xf8, 0xd6, 0xd7, 0xbe, 0xc0, 0xb9, 0xae, 0xbe, 0x24, 0x8f, 0x03, 0xbf,
  0x34, 0xc8, 0x3c, 0xbf, 0x60, 0x13, 0xc7, 0xbe, 0x93, 0x6e, 0x28, 0xbf,
  0xe9, 0xf9, 0xbe, 0xbe, 0xa8, 0x92, 0xd2, 0xbe, 0xec, 0xf1, 0x0f, 0xbf,
  0xfa, 0xcc, 0xe1, 0xbe, 0xef, 0x3d, 0xca, 0xbe, 0xfd, 0x85, 0x0b, 0xbf,
  0xa1, 0xcb, 0x01, 0xbf, 0xdf, 0xb4, 0x3a, 0x3f, 0x51, 0x83, 0x86, 0xbe,
  0x97, 0xc1, 0xe7, 0xbe, 0x11, 0x6f, 0xb8, 0x3e, 0x8d, 0x2a, 0x14, 0x3f,
  0x0a, 0xf6, 0x99, 0x3e, 0x30, 0x34, 0xf1, 0x3e, 0xc2, 0x94, 0x73, 0x3e,
  0x19, 0x89, 0xd6, 0x3e, 0x4e, 0x71, 0xdf, 0x3e, 0xc8, 0xca, 0xff, 0x3e,
  0x36, 0x39, 0x81, 0x3e, 0x1c, 0xd8, 0x7d, 0x3e, 0x60, 0xa0, 0x02, 0x3f,
  0x9b, 0x32, 0x9f, 0x3e, 0x53, 0x34, 0xfe, 0x3e, 0x43, 0x9a, 0x0b, 0xbe,
  0xca, 0xa6, 0x80, 0x3e, 0x22, 0x21, 0x13, 0x3f, 0x4d, 0x3b, 0xe8, 0x3e,
  0x63, 0x2f, 0xe8, 0x3e, 0x51, 0x16, 0x52, 0x3e, 0x30, 0xca, 0xd6, 0x3e,
  0xbe, 0x3c, 0x9d, 0x3e, 0x36, 0xd7, 0xc8, 0x3e, 0xd2, 0xad, 0x91, 0x3e,
  0x6c, 0x75, 0x18, 0x3f, 0x88, 0xfd, 0xd7, 0x3e, 0x0a, 0x39, 0x0f, 0x3f,
  0x67, 0x63, 0xe2, 0x3e, 0xd6, 0xde, 0xcb, 0x3e, 0x3c, 0x35, 0x10, 0x3f,
  0x0e, 0xb6, 0x54, 0x3e, 0x35, 0x40, 0x0e, 0x3f, 0xae, 0x87, 0xd1, 0x3e,
  0x90, 0x9a, 0xf3, 0x3e, 0x0a, 0xdf, 0x8b, 0x3e, 0x52, 0x74, 0x87, 0x3e,
  0x61, 0x9b, 0x70, 0x3e, 0x7f, 0x67, 0x0e, 0x3f, 0x43, 0x28, 0x03, 0x3f,
  0xf4, 0x1f, 0xeb, 0x3e, 0x77, 0x9e, 0xc5, 0x3e, 0x75, 0x47, 0x88, 0x3e,
  0x9b, 0x02, 0x60, 0x3e, 0x9f, 0x33, 0xb8, 0x3e, 0x7a, 0xbc, 0xf7, 0x3e,
  0x25, 0xbf, 0xe9, 0x3e, 0xc4, 0x96, 0xca, 0x3c, 0x3f, 0x98, 0x0b, 0x3f,
  0x6c, 0x04, 0x7d, 0x3e, 0xdb, 0xc2, 0x4d, 0x3e, 0xbb, 0x89, 0x40, 0x3e,
  0xf3, 0x97, 0xa8, 0x3e, 0x74, 0xb2, 0x3b, 0x3e, 0xbf, 0x20, 0x1a, 0x3e,
  0xab, 0x62, 0xf5, 0x3e, 0x14, 0x01, 0xb2, 0x3e, 0x80, 0x78, 0x10, 0x3f,
  0x99, 0x0c, 0xd1, 0x3e, 0xe4, 0x49, 0x4d, 0x3e, 0x36, 0xe5, 0xde, 0x3e,
  0x07, 0xc9, 0x97, 0x3e, 0xd2, 0x8b, 0x0c, 0x3f, 0x88, 0xfd, 0x06, 0x3e,
  0x4b, 0xa1, 0x8d, 0x3e, 0x35, 0x5d, 0x91, 0x3e, 0xa0, 0xe7, 0xdb, 0x3e,
  0x29, 0x78, 0x3e, 0x3e, 0x1c, 0x29, 0xf1, 0x3e, 0x8e, 0xb6, 0x8c, 0x3e,
  0x41, 0xd6, 0x03, 0x3f, 0x13, 0x8c, 0x60, 0x3e, 0x49, 0x72, 0xc0, 0x3e,
  0x3e, 0xf8, 0xfd, 0x3e, 0x31, 0x99, 0x67, 0x3e, 0x48, 0xb4, 0xd6, 0x3e,
  0x78, 0xc8, 0x80, 0x3e, 0x84, 0xff, 0xa3, 0x3e, 0x00, 0xa8, 0x05, 0x3f,
  0x44, 0x3d, 0x45, 0x3d, 0x82, 0xf1, 0x6f, 0x3e, 0x33, 0xd2, 0xde, 0x3e,
  0x0f, 0xfb, 0xc1, 0x3e, 0xad, 0x08, 0x9c, 0x3e, 0x49, 0x44, 0xc1, 0x3e,
  0x52, 0x0e, 0x8d, 0x3e, 0x24, 0xf9, 0xf6, 0x3e, 0xa9, 0x44, 0x64, 0x3e,
  0x6f, 0x69, 0xb2, 0x3e, 0x67, 0xdf, 0xee, 0x3e, 0x26, 0x74, 0x18, 0x3f,
  0x05, 0x04, 0x39, 0x3e, 0x29, 0xd6, 0xd5, 0x3e, 0x31, 0x25, 0xbf, 0x3e,
  0x1e, 0x79, 0x9e, 0x3e, 0xa9, 0x63, 0x7f, 0xbd, 0x2e, 0xea, 0xb8, 0x3e,
  0x51, 0x3c, 0xab, 0x3e, 0x3d, 0x4c, 0xb2, 0x3e, 0xc8, 0x15, 0xde, 0x3e,
  0x63, 0xdc, 0x06, 0x3f, 0xcb, 0xdc, 0x61, 0x3e, 0x7e, 0x04, 0x8c, 0x3e,
  0xbf, 0x19, 0x04, 0x3f, 0x1f, 0xd6, 0xe2, 0x3e, 0xf5, 0x32, 0xe4, 0x3e,
  0x43, 0x01, 0xda, 0x3e, 0x32, 0x1b, 0x2e, 0x3e, 0x86, 0xff, 0xfe, 0x3d,
  0x0a, 0xe7, 0x0a, 0x3f, 0xab, 0x0c, 0xc7, 0x3e, 0x58, 0xb1, 0x31, 0x3e,
  0xae, 0x86, 0xd3, 0x3e, 0xa5, 0xfb, 0x99, 0x3e, 0x1d, 0x1d, 0xa6, 0x3e,
  0x77, 0x97, 0xc1, 0x3e, 0x97, 0x93, 0x00, 0x3f, 0x27, 0x92, 0xfd, 0x3e,
  0x5a, 0x7a, 0x8c, 0x3e, 0x4b, 0xd0, 0xed, 0x3e, 0xe5, 0x03, 0xae, 0x3e,
  0xbf, 0x54, 0x92, 0x3e, 0xd8, 0x29, 0xf8, 0x3e, 0x1a, 0x66, 0xe3, 0x3e,
  0x98, 0xdd, 0x89, 0x3e, 0xb8, 0xa7, 0xaf, 0x3e, 0x54, 0xe1, 0xa9, 0x3e,
  0x68, 0x92, 0xd9, 0xbd, 0x0e, 0x38, 0xc9, 0x3e, 0x75, 0x10, 0xd1, 0x3e,
  0xe8, 0xda, 0xb4, 0x3e, 0xca, 0xc8, 0xdb, 0x3e, 0x8b, 0xb1, 0x92, 0x3e,
  0x34, 0xda, 0x8d, 0x3e, 0x89, 0x1f, 0x31, 0x3e, 0xe2, 0xde, 0x02, 0x3f,
  0x47, 0x43, 0x79, 0x3e, 0x99, 0x53, 0xb9, 0x3e, 0x0f, 0x1a, 0xd4, 0x3e,
  0x5f, 0x08, 0xbf, 0x3e, 0xf8, 0xf8, 0x7e, 0x3e, 0x9b, 0x88, 0xae, 0x3e,
  0x10, 0x38, 0xaa, 0x3e, 0xeb, 0xec, 0x5a, 0xbd, 0xd3, 0x17, 0x78, 0x3e,
  0x72, 0x3a, 0xdf, 0x3e, 0x54, 0x5e, 0x62, 0x3e, 0xd5, 0x3e, 0x62, 0x3e,
  0x90, 0x45, 0x70, 0x3e, 0x57, 0xe4, 0x4f, 0x3e, 0x2f, 0x8d, 0x92, 0x3e,
  0xf0, 0x55, 0x57, 0x3e, 0x02, 0x49, 0xdf, 0x3e, 0x7a, 0xf6, 0xdf, 0x3e,
  0x6b, 0x95, 0xc5, 0x3e, 0x24, 0x16, 0xf2, 0x3e, 0xf5, 0x76, 0xf9, 0x3d,
  0xc6, 0xb4, 0xa7, 0x3e, 0x23, 0x92, 0x8d, 0x3e, 0xda, 0xb7, 0xc4, 0xbd,
  0x17, 0x63, 0x9b, 0x3e, 0x0d, 0xd0, 0xd2, 0x3e, 0x26, 0x37, 0xd2, 0x3e,
  0x65, 0xe1, 0xeb, 0x3e, 0x90, 0xd8, 0x58, 0x3e, 0x83, 0xe2, 0x07, 0x3f,
  0x49, 0xe0, 0x02, 0x3e, 0x8a, 0xd9, 0x96, 0x3e, 0x21, 0x83, 0xaf, 0x3e,
  0x8c, 0x0b, 0xb3, 0x3e, 0x85, 0xe5, 0xaa, 0x3e, 0x61, 0x96, 0x60, 0x3e,
  0xc7, 0x7e, 0x0f, 0x3e, 0x7a, 0x27, 0x93, 0x3e, 0xa7, 0xf2, 0x1a, 0x3e,
  0x86, 0xdb, 0xd8, 0x3d, 0x21, 0x7d, 0xb2, 0x3e, 0x86, 0x03, 0xbb, 0x3e,
  0x2f, 0x26, 0x94, 0x3e, 0x77, 0x0d, 0xb1, 0x3e, 0x74, 0xf9, 0xbc, 0x3e,
  0x45, 0x4c, 0xfd, 0x3e, 0x5e, 0x9e, 0x94, 0x3e, 0xe7, 0xe8, 0x01, 0x3f,
  0xfc, 0xbf, 0x5c, 0x3e, 0x5d, 0x0d, 0xc9, 0x3e, 0xfa, 0xea, 0x8a, 0x3e,
  0xa5, 0x3a, 0x88, 0x3e, 0x16, 0xb1, 0xe9, 0x3e, 0xeb, 0x3e, 0xdf, 0x3e,
  0x5e, 0xf1, 0xec, 0x3e, 0x8d, 0x2a, 0xcd, 0x3d, 0xcd, 0x30, 0xe4, 0x3e,
  0x04, 0x68, 0xfc, 0x3e, 0xe6, 0x88, 0x85, 0x3e, 0xcc, 0x2b, 0xe6, 0x3e,
  0x75, 0x11, 0xa7, 0x3e, 0x0f, 0xc3, 0x9c, 0x3e, 0x9b, 0x02, 0x51, 0x3e,
  0x86, 0x79, 0x1e, 0x3f, 0x25, 0x89, 0xbe, 0x3e, 0x87, 0xff, 0x2c, 0x3f,
  0x12, 0x82, 0xdb, 0x3e, 0xd0, 0x17, 0xc5, 0x3e, 0x0f, 0x17, 0xb3, 0x3e,
  0x63, 0xbc, 0xb0, 0x3e, 0x95, 0x07, 0x19, 0x3f, 0x0f, 0x5f, 0x33, 0x3e,
  0x99, 0x1d, 0x80, 0x3e, 0xac, 0x01, 0x0c, 0x3f, 0x2d, 0x22, 0x01, 0x3f,
  0x99, 0x4d, 0x16, 0x3f, 0xbd, 0x36, 0xf8, 0x3e, 0x45, 0xa3, 0x05, 0x3f,
  0x77, 0xf5, 0x98, 0x3e, 0x08, 0x84, 0x8c, 0x3e, 0x76, 0xda, 0x01, 0x3f,
  0xc5, 0x75, 0x2d, 0x3f, 0xa1, 0x57, 0x99, 0x3e, 0x3c, 0x91, 0x89, 0x3e,
  0xbb, 0xbf, 0x82, 0x3e, 0x67, 0x31, 0x1d, 0x3f, 0x72, 0xf5, 0xc4, 0x3e,
  0xe3, 0x77, 0xe5, 0xbd, 0xfa, 0xa7, 0x8f, 0x3e, 0xdb, 0xbc, 0x95, 0x3e,
  0xcc, 0x53, 0x11, 0x3f, 0x5f, 0x11, 0x92, 0x3e, 0xf5, 0x42, 0x8f, 0x3e,
  0x69, 0xe8, 0xa7, 0x3e, 0x54, 0xeb, 0x90, 0x3e, 0x35, 0x1d, 0x0f, 0x3f,
  0xf0, 0xcd, 0xe8, 0x3e, 0x9d, 0x69, 0x12, 0x3f, 0x56, 0xe1, 0x19, 0x3f,
  0x53, 0x90, 0xcb, 0x3e, 0xeb, 0x24, 0xa2, 0x3e, 0x16, 0x2e, 0x23, 0x3f,
  0x96, 0x65, 0xb8, 0x3e, 0x67, 0x75, 0x23, 0xbd, 0x37, 0x8d, 0x17, 0x3f,
  0x23, 0x10, 0xbb, 0x3e, 0xdc, 0x00, 0x6b, 0x3e, 0x9d, 0xb8, 0x54, 0x3e,
  0xf8, 0xe0, 0x89, 0x3e, 0x1a, 0x5f, 0xab, 0x3e, 0xe4, 0x41, 0x6f, 0x3e,
  0x92, 0x3a, 0x9f, 0x3e, 0xda, 0x2d, 0x25, 0x3e, 0x1f, 0x85, 0x87, 0x3e,
  0x03, 0x27, 0x19, 0x3f, 0xa0, 0x64, 0xf8, 0x3e, 0x87, 0xed, 0x29, 0x3e,
  0x7b, 0xd8, 0xb0, 0x3e, 0xb0, 0xda, 0xa6, 0x3e, 0xa6, 0xdd, 0xdc, 0xbd,
  0x4f, 0xcb, 0x06, 0x3f, 0xbe, 0xea, 0x8d, 0x3e, 0x3b, 0xb8, 0xae, 0x3e,
  0x77, 0x4d, 0xea, 0x3e, 0x4e, 0xe0, 0x97, 0x3e, 0xb4, 0xa0, 0x98, 0x3e,
  0x43, 0x3d, 0x00, 0x3f, 0x34, 0xc4, 0xd4, 0x3e, 0x18, 0x4e, 0x62, 0x3e,
  0xd4, 0xd0, 0xa0, 0x3e, 0xe0, 0x68, 0x0a, 0x3f, 0xad, 0x4d, 0xb3, 0x3e,
  0x23, 0xc6, 0xa9, 0x3e, 0xfa, 0xab, 0xe0, 0x3e, 0x2b, 0x06, 0x8d, 0x3e,
  0x6b, 0x01, 0x34, 0x3e, 0xbd, 0xfa, 0x6c, 0x3e, 0xbe, 0x17, 0xdb, 0x3e,
  0x7b, 0x3c, 0xf9, 0x3e, 0x51, 0x93, 0xb3, 0x3e, 0x2e, 0x4f, 0xb5, 0x3e,
  0xd6, 0xe4, 0xb1, 0x3e, 0xa9, 0xc1, 0x41, 0x3e, 0x79, 0x4a, 0x85, 0x3e,
  0x35, 0xed, 0xf9, 0x3e, 0xe6, 0x93, 0x0e, 0x3f, 0x00, 0xf0, 0x0f, 0x3f,
  0x2b, 0xc9, 0xf5, 0x3e, 0xc0, 0xca, 0xf3, 0x3e, 0x81, 0xd1, 0xae, 0x3e,
  0xd5, 0x93, 0xc8, 0x3e, 0x67, 0xc1, 0x3b, 0xbb, 0x25, 0x18, 0xc1, 0x3e,
  0x10, 0x34, 0xdb, 0x3e, 0xfe, 0x21, 0xa5, 0x3c, 0x4f, 0xe5, 0x12, 0x3e,
  0x62, 0xf0, 0x36, 0xbe, 0x67, 0xdd, 0x0e, 0x3d, 0xd5, 0x54, 0x07, 0xbd,
  0x2c, 0x49, 0xee, 0x3d, 0xd6, 0xc0, 0x3b, 0x3d, 0xa8, 0x3b, 0x57, 0xbe,
  0x0d, 0x68, 0x04, 0xbc, 0xbb, 0x7d, 0x1a, 0xbe, 0xd9, 0x88, 0x4d, 0xbe,
  0x82, 0x1a, 0x9e, 0x3d, 0xe8, 0xbc, 0xc6, 0xbd, 0xf0, 0x0a, 0x66, 0xbe,
  0x17, 0x40, 0x47, 0x3d, 0x61, 0x17, 0x86, 0x3d, 0xa7, 0x1e, 0x2a, 0x3b,
  0x38, 0x2f, 0xf3, 0xbd, 0xc8, 0xfb, 0xb1, 0x3d, 0xf2, 0x8d, 0xaf, 0xbd,
  0xda, 0x7f, 0xc1, 0x3c, 0x6b, 0xac, 0x4c, 0x3b, 0x47, 0x0a, 0xf0, 0x3d,
  0xe1, 0x51, 0x2e, 0x3e, 0xef, 0x72, 0x0b, 0x3e, 0x7e, 0xf9, 0x37, 0x3e,
  0x26, 0x50, 0x22, 0x3e, 0x32, 0x26, 0x07, 0xbe, 0xd7, 0x40, 0xa7, 0x3d,
  0x92, 0x35, 0xa6, 0xbd, 0x2f, 0x75, 0x1e, 0x3e, 0x6e, 0x89, 0xd6, 0xbd,
  0x36, 0xd2, 0x01, 0x3e, 0xd3, 0x2a, 0x07, 0xbe, 0x0f, 0x3b, 0x16, 0x3e,
  0xa0, 0xdb, 0x37, 0x3d, 0x44, 0xa4, 0xbf, 0x3d, 0x5a, 0x73, 0x0a, 0x3e,
  0x8e, 0x53, 0x10, 0xbe, 0x83, 0x97, 0x26, 0x3e, 0x3a, 0x1e, 0xc5, 0xbd,
  0x44, 0x1d, 0xd7, 0x3c, 0x13, 0x96, 0x3b, 0xbe, 0xf1, 0x01, 0x11, 0x3e,
  0x18, 0x1f, 0x5f, 0xbe, 0x4d, 0x1d, 0x05, 0xbd, 0x44, 0xdd, 0xe3, 0x3d,
  0x33, 0xd7, 0x37, 0xbd, 0x7e, 0x9e, 0xd7, 0x3e, 0x56, 0xe9, 0x8d, 0x3e,
  0xd8, 0x9a, 0xf9, 0x3e, 0x94, 0xaa, 0x74, 0x3e, 0x2b, 0x2f, 0x7b, 0x3e,
  0xa4, 0xae, 0xb7, 0x3e, 0xc1, 0x57, 0xec, 0x3e, 0x40, 0xe2, 0xfb, 0x3e,
  0x86, 0xeb, 0x1e, 0x3f, 0xaf, 0x29, 0x06, 0x3f, 0xa4, 0xb4, 0x04, 0x3f,
  0x96, 0x5f, 0x12, 0x3f, 0xe2, 0xcb, 0xe5, 0x3e, 0xd3, 0x00, 0x36, 0x3d,
  0x40, 0x0a, 0xab, 0x3e, 0xd9, 0x1c, 0x5f, 0x3e, 0x18, 0xc8, 0x08, 0x3f,
  0x35, 0x58, 0xb8, 0x3e, 0xd9, 0x75, 0xde, 0x3e, 0xcd, 0xe9, 0xb3, 0x3e,
  0xb4, 0x65, 0x06, 0x3f, 0x64, 0x64, 0xd0, 0x3e, 0x3a, 0x36, 0x23, 0x3e,
  0x3d, 0xc4, 0xe8, 0x3e, 0x4f, 0xa8, 0xec, 0x3e, 0xd2, 0x3f, 0x4e, 0x3e,
  0xff, 0xf1, 0xd2, 0x3e, 0x4d, 0xf4, 0x81, 0x3e, 0xc1, 0xa9, 0x59, 0x3e,
  0x8d, 0xaa, 0x53, 0x3d, 0xee, 0xb8, 0xd5, 0x3e, 0x5c, 0x6f, 0xc6, 0x3e,
  0x52, 0xec, 0x16, 0x3f, 0x2d, 0x8f, 0xcb, 0x3e, 0x7b, 0x12, 0x01, 0x3f,
  0x99, 0x7d, 0xc2, 0x3e, 0xfe, 0x33, 0x08, 0x3f, 0x67, 0xfd, 0x96, 0x3e,
  0xb2, 0x12, 0x8c, 0x3e, 0x1b, 0x0b, 0x9e, 0x3e, 0xe8, 0xde, 0x94, 0x3e,
  0xf7, 0x4b, 0x57, 0x3e, 0xb5, 0x9c, 0x62, 0x3e, 0x03, 0x2f, 0x94, 0x3e,
  0xa2, 0x4b, 0xdb, 0x3e, 0x10, 0x95, 0x11, 0x3d, 0xdf, 0x6b, 0x09, 0x3f,
  0x11, 0xcd, 0xe3, 0x3e, 0x33, 0xbd, 0xf4, 0x3e, 0x3d, 0x2f, 0xad, 0x3e,
  0x5f, 0x7e, 0xee, 0x3e, 0x10, 0x67, 0x3d, 0x3e, 0x6b, 0x2d, 0xfb, 0x3d,
  0xaf, 0x5a, 0xd3, 0x3e, 0x1b, 0x66, 0xba, 0x3e, 0x4b, 0x92, 0xa5, 0x3e,
  0x21, 0xcd, 0xb6, 0x3e, 0x1b, 0xd8, 0xc4, 0x3e, 0x54, 0xed, 0x10, 0x3e,
  0x81, 0x34, 0x45, 0x3e, 0xb4, 0x5e, 0x99, 0x3e, 0x48, 0xab, 0x17, 0x3e,
  0x5d, 0xd6, 0xd9, 0x3e, 0x74, 0xb3, 0x55, 0x3e, 0x3e, 0x2c, 0x8c, 0x3e,
  0xf1, 0x63, 0xae, 0x3e, 0x06, 0xf1, 0xcf, 0x3e, 0xd6, 0x11, 0x95, 0x3e,
  0x10, 0x78, 0xec, 0x3e, 0x98, 0xda, 0x19, 0x3e, 0x76, 0x91, 0xa9, 0x3e,
  0xcc, 0xe1, 0x8e, 0x3e, 0xe6, 0x72, 0x47, 0x3e, 0x4a, 0x59, 0xdf, 0x3e,
  0x45, 0x1f, 0xeb, 0x3e, 0xc2, 0xff, 0x3d, 0x3e, 0x7c, 0x9a, 0xd4, 0x3e,
  0x27, 0x13, 0x28, 0xbe, 0xfc, 0xb0, 0xfd, 0x3e, 0xe0, 0x4e, 0xec, 0x3d,
  0x69, 0x69, 0xd8, 0x3e, 0xfb, 0x92, 0x96, 0x3e, 0x91, 0x7b, 0x7c, 0x3e,
  0x12, 0x14, 0xf9, 0x3e, 0x89, 0x50, 0x52, 0x3e, 0xcf, 0x08, 0x99, 0x3e,
  0xca, 0xde, 0x76, 0x3e, 0x39, 0x35, 0xdf, 0x3e, 0xae, 0x54, 0x4a, 0x3e,
  0x37, 0x83, 0x02, 0x3e, 0x84, 0xd2, 0xba, 0x3e, 0x98, 0x77, 0xd9, 0x3e,
  0x4f, 0x23, 0xfc, 0x3d, 0x0a, 0xad, 0xd1, 0x3d, 0x82, 0x75, 0x43, 0x3e,
  0x9f, 0xf1, 0x4f, 0x3e, 0x23, 0x3a, 0x30, 0x3e, 0x98, 0x20, 0xcc, 0xbc,
  0x9c, 0x9b, 0x04, 0xbe, 0x67, 0x0f, 0x05, 0xbe, 0x78, 0x89, 0xa7, 0xbd,
  0x6f, 0xf4, 0xff, 0x3d, 0x60, 0xd7, 0xd3, 0xbd, 0x1d, 0xd7, 0xb7, 0xbd,
  0x80, 0xc8, 0x49, 0xbe, 0x1e, 0xd6, 0x6a, 0x3d, 0x08, 0x2d, 0xe0, 0xbd,
  0x10, 0xf7, 0x8e, 0x3b, 0xf8, 0x05, 0x67, 0xbd, 0x7f, 0x52, 0xb5, 0xbd,
  0xb0, 0x53, 0x31, 0xbd, 0x74, 0xba, 0x1b, 0xbe, 0x8d, 0x95, 0x1a, 0xbe,
  0xe5, 0xa2, 0xbd, 0x3d, 0xd2, 0x36, 0x3f, 0x3e, 0x38, 0x20, 0x17, 0xbe,
  0x6b, 0xd2, 0x83, 0xbd, 0x42, 0xae, 0xbb, 0xbd, 0xb0, 0xe3, 0xd7, 0xbd,
  0xdd, 0x5e, 0x79, 0x3d, 0x38, 0x23, 0xec, 0xbd, 0x6c, 0x6b, 0x7c, 0x3c,
  0x0a, 0xff, 0xaa, 0xbd, 0x6c, 0x5b, 0x4d, 0x3e, 0x7c, 0x0f, 0xed, 0x3d,
  0x77, 0xee, 0x21, 0xbe, 0x71, 0x74, 0x5d, 0xbd, 0x14, 0x67, 0x4c, 0xbd,
  0x69, 0xc7, 0x08, 0x3d, 0x54, 0xf4, 0xd2, 0x3d, 0xb0, 0xe5, 0xca, 0x3c,
  0x2a, 0x04, 0x47, 0xbe, 0xbb, 0x8c, 0x21, 0xbc, 0x6f, 0xd0, 0x3c, 0xbd,
  0xe9, 0xc8, 0xd3, 0xbd, 0x69, 0x77, 0x5d, 0xbd, 0x77, 0xb4, 0x3d, 0xbe,
  0x79, 0xf8, 0x31, 0x3d, 0xa0, 0x44, 0x07, 0xbc, 0xbc, 0x1d, 0x97, 0xbd,
  0x29, 0xf1, 0xc4, 0x3c, 0x1b, 0x07, 0xa3, 0xbd, 0x30, 0x2a, 0xf7, 0x3d,
  0x73, 0x38, 0xbb, 0x3d, 0xb2, 0x47, 0x2a, 0x3e, 0x4e, 0x6b, 0xf9, 0x3e,
  0x11, 0xf9, 0x25, 0x3e, 0xb4, 0x66, 0xab, 0x3e, 0x03, 0xef, 0xf5, 0x3e,
  0xea, 0x70, 0xd3, 0x3e, 0x45, 0xe7, 0x83, 0x3e, 0x83, 0x3f, 0xf9, 0x3e,
  0xa2, 0xa2, 0xa8, 0x3e, 0xb1, 0xee, 0xee, 0x3e, 0x02, 0xeb, 0xe1, 0x3e,
  0x01, 0xdc, 0x89, 0x3e, 0x9e, 0x99, 0xd4, 0x3e, 0x90, 0x74, 0xdb, 0x3d,
  0xf1, 0x9b, 0x05, 0x3e, 0xa5, 0x8c, 0xc0, 0x3e, 0xfd, 0x26, 0x65, 0x3e,
  0xf4, 0x9c, 0x8b, 0x3e, 0x1e, 0xd1, 0x37, 0x3e, 0x2a, 0x92, 0x60, 0x3e,
  0x1c, 0xde, 0x9c, 0x3e, 0x4a, 0xc0, 0x9e, 0x3e, 0xbd, 0x6c, 0x55, 0x3e,
  0x88, 0x2f, 0x82, 0x3e, 0x99, 0xc2, 0x80, 0x3e, 0x37, 0x56, 0x11, 0x3e,
  0xb2, 0x2c, 0xcb, 0x3e, 0x9e, 0x2f, 0x7c, 0x3e, 0x5e, 0x81, 0x84, 0x3e,
  0xc4, 0x6f, 0x92, 0xbc, 0xb5, 0x0a, 0x7a, 0x3e, 0x03, 0xb0, 0xa5, 0x3e,
  0x98, 0x99, 0xf3, 0x3e, 0x07, 0xeb, 0x9d, 0x3e, 0xf1, 0x8a, 0xd3, 0x3e,
  0x19, 0xf6, 0x4a, 0x3e, 0x30, 0xe7, 0xe9, 0x3e, 0x61, 0x41, 0xa6, 0x3e,
  0xff, 0x19, 0x78, 0x3e, 0x2a, 0x34, 0x0d, 0x3f, 0x39, 0x49, 0x07, 0x3f,
  0x13, 0xaa, 0x5c, 0x3e, 0x9e, 0xa7, 0x5b, 0x3e, 0x25, 0x99, 0xf1, 0x3e,
  0x9c, 0x7a, 0xfb, 0x3e, 0x9c, 0xc3, 0xa0, 0xbd, 0x76, 0xae, 0xba, 0x3e,
  0xa1, 0x46, 0x8f, 0x3e, 0x47, 0x6a, 0xe4, 0x3e, 0xcf, 0x1b, 0x19, 0x3f,
  0x9c, 0x07, 0x0b, 0x3f, 0x0e, 0x46, 0x8c, 0x3e, 0xc1, 0x76, 0x7c, 0x3e,
  0xde, 0x51, 0x19, 0x3f, 0x7b, 0x54, 0x83, 0x3e, 0x4c, 0xb4, 0x14, 0x3f,
  0x91, 0x08, 0x14, 0x3f, 0x3c, 0xe3, 0x3f, 0x3e, 0x6f, 0xb8, 0x04, 0x3f,
  0xeb, 0xb0, 0x26, 0x3f, 0x89, 0xce, 0xde, 0x3e, 0x95, 0xc8, 0xf7, 0xbd,
  0x22, 0x89, 0xa6, 0x3e, 0xd3, 0x39, 0xbe, 0x3e, 0x99, 0x4c, 0x0a, 0x3f,
  0x96, 0x4e, 0x09, 0x3f, 0x3a, 0x51, 0xc1, 0x3e, 0xe8, 0x54, 0x1d, 0x3f,
  0x59, 0x3f, 0x00, 0x3f, 0x9e, 0x88, 0xea, 0x3e, 0x47, 0x27, 0xf5, 0x3e,
  0x7a, 0x55, 0x25, 0x3f, 0x72, 0xf6, 0x1c, 0x3f, 0xaf, 0xfa, 0x12, 0x3f,
  0x42, 0x5d, 0x84, 0x3e, 0x3b, 0x91, 0x16, 0x3f, 0x16, 0x19, 0xab, 0x3e,
  0x4a, 0x4f, 0x88, 0xbc, 0x6f, 0xbf, 0x14, 0x3f, 0xef, 0xd0, 0xef, 0x3e,
  0xb9, 0x39, 0xf2, 0x3e, 0xc1, 0xf0, 0x8e, 0x3e, 0xb0, 0x0a, 0xb9, 0x3e,
  0xe9, 0xc5, 0x7d, 0x3e, 0x2d, 0x69, 0xc6, 0x3e, 0x7d, 0x7e, 0x94, 0x3e,
  0xcb, 0x9b, 0x00, 0x3f, 0x48, 0x54, 0xf4, 0x3e, 0xa4, 0xcb, 0x07, 0x3f,
  0x40, 0xac, 0xf7, 0x3e, 0x36, 0x3f, 0x01, 0x3f, 0x04, 0x0a, 0xab, 0x3e,
  0xc9, 0x85, 0x18, 0x3f, 0xee, 0xa9, 0x70, 0x3e, 0xd2, 0x8b, 0xc2, 0x3e,
  0x6a, 0xf4, 0xfa, 0x3e, 0x8e, 0x51, 0xef, 0x3e, 0x12, 0x7d, 0xe7, 0x3e,
  0x76, 0xd1, 0x0f, 0x3f, 0x99, 0x55, 0x8f, 0x3e, 0x60, 0x6b, 0x03, 0x3f,
  0xe4, 0x95, 0xea, 0x3e, 0x9c, 0x8d, 0xd1, 0x3e, 0xfb, 0xd9, 0xc2, 0x3e,
  0x55, 0x06, 0xc5, 0x3e, 0xf7, 0x37, 0x50, 0x3e, 0xb7, 0x0a, 0x0c, 0x3f,
  0x49, 0x35, 0xdd, 0x3e, 0xc9, 0x43, 0xcf, 0x3e, 0xff, 0x43, 0x56, 0xbe,
  0xab, 0x77, 0x03, 0x3f, 0xc5, 0xd9, 0xc0, 0x3e, 0x01, 0x87, 0xdf, 0x3e,
  0x16, 0xc4, 0x45, 0x3e, 0x74, 0xdc, 0xec, 0x3e, 0xfa, 0x81, 0x96, 0x3e,
  0x7f, 0x04, 0x78, 0x3e, 0x45, 0xfb, 0xa4, 0x3e, 0xfa, 0xda, 0x4a, 0x3e,
  0x15, 0x56, 0xcb, 0x3e, 0x32, 0xe3, 0x0d, 0x3f, 0xa0, 0x3e, 0x85, 0x3e,
  0x05, 0x32, 0x9a, 0x3e, 0xea, 0xa0, 0xc9, 0x3e, 0xb4, 0xdc, 0x96, 0x3e,
  0x3e, 0xd1, 0x60, 0x3e, 0x31, 0x37, 0x6e, 0x3e, 0x97, 0x65, 0xaa, 0x3e,
  0x6a, 0x92, 0xda, 0x3e, 0x65, 0xa4, 0xca, 0x3e, 0x5c, 0x35, 0xdd, 0x3e,
  0x99, 0xbc, 0xc4, 0x3e, 0xfd, 0x77, 0xe1, 0x3e, 0x8e, 0xca, 0xca, 0x3e,
  0xc1, 0x7f, 0xc2, 0x3e, 0x38, 0xb6, 0xca, 0x3e, 0x3a, 0x52, 0x1a, 0x3f,
  0x21, 0x7d, 0x6a, 0x3e, 0x57, 0xc7, 0x52, 0x3e, 0xb0, 0x67, 0x6b, 0x3e,
  0xb6, 0xc3, 0x0e, 0x3f, 0x71, 0x43, 0xe2, 0x3d, 0x4e, 0x24, 0x3a, 0x3e,
  0xa3, 0xb7, 0x13, 0x3f, 0x97, 0xac, 0xcd, 0x3e, 0x9c, 0xb0, 0x1c, 0x3f,
  0xb0, 0xd4, 0x92, 0x3e, 0x8c, 0xb6, 0x01, 0x3f, 0xf9, 0x1e, 0x1f, 0x3f,
  0x04, 0xe6, 0xfb, 0x3e, 0x3b, 0x56, 0x01, 0x3f, 0xf3, 0xf8, 0x20, 0x3f,
  0xdb, 0x7a, 0xef, 0x3e, 0x08, 0x69, 0xbe, 0x3e, 0x33, 0x7f, 0xf1, 0x3e,
  0x36, 0x41, 0x27, 0x3f, 0x2d, 0x42, 0x16, 0x3f, 0x40, 0x33, 0x4e, 0x3e,
  0x1f, 0x39, 0x0e, 0x3f, 0xa2, 0x17, 0xaa, 0x3e, 0x39, 0x30, 0xd2, 0x3e,
  0x6e, 0x0b, 0xc1, 0x3e, 0xf1, 0xf6, 0xe7, 0x3e, 0xa9, 0x85, 0xe3, 0x3e,
  0xe1, 0xa9, 0x1f, 0x3f, 0xa0, 0x40, 0x30, 0x3f, 0x5d, 0x50, 0xd2, 0x3e,
  0x9e, 0x3e, 0x37, 0x3f, 0x4c, 0x53, 0x2d, 0x3f, 0xe9, 0x3d, 0x91, 0x3e,
  0x5b, 0x52, 0x02, 0x3f, 0xaf, 0xeb, 0x0e, 0x3f, 0x59, 0x10, 0xf8, 0x3e,
  0x33, 0xbf, 0x92, 0xbd, 0x7f, 0x2f, 0x02, 0x3f, 0x68, 0x36, 0xe7, 0x3e,
  0x8b, 0xbc, 0x9b, 0x3e, 0x77, 0xfa, 0xcc, 0x3e, 0x40, 0x4e, 0xcc, 0x3e,
  0xc6, 0x25, 0x18, 0x3f, 0xbf, 0x6e, 0xea, 0x3e, 0x65, 0x3e, 0xe7, 0x3e,
  0xef, 0xbf, 0x8b, 0x3e, 0x8b, 0x2d, 0x45, 0x3f, 0x03, 0xa2, 0x35, 0x3f,
  0x50, 0xd4, 0x1e, 0x3f, 0xe8, 0x0b, 0x16, 0x3f, 0xf2, 0x96, 0xa1, 0x3e,
  0x98, 0x9d, 0xa8, 0x3e, 0xe4, 0xaf, 0xb5, 0xbd, 0x36, 0x0e, 0xc1, 0x3e,
  0x2f, 0x67, 0x02, 0x3f, 0xee, 0x5a, 0xd0, 0x3e, 0x11, 0x04, 0x42, 0x3e,
  0xc9, 0xd8, 0x09, 0x3f, 0x85, 0xd5, 0x6c, 0x3e, 0x9e, 0x2c, 0x83, 0x3e,
  0x33, 0x91, 0xbe, 0x3e, 0x47, 0xc0, 0x89, 0x3e, 0x6f, 0x55, 0x0a, 0x3f,
  0x54, 0x82, 0xdf, 0x3e, 0xdd, 0x25, 0xc4, 0x3e, 0xec, 0x11, 0x89, 0x3e,
  0x7f, 0xa0, 0x04, 0x3f, 0xb5, 0xad, 0xf9, 0x3e, 0xcb, 0x44, 0x9f, 0xbd,
  0xf2, 0xef, 0xca, 0x3e, 0x27, 0x53, 0xd4, 0x3e, 0x5a, 0xe0, 0x6f, 0x3e,
  0xa7, 0x5b, 0x3b, 0x3e, 0xa1, 0x0a, 0x65, 0x3e, 0x70, 0xe2, 0xc0, 0x3e,
  0x5f, 0x54, 0xd9, 0x3e, 0xaa, 0x6d, 0x6e, 0x3e, 0x1c, 0x3c, 0x27, 0x3e,
  0xaa, 0x62, 0xd4, 0x3e, 0x48, 0xec, 0x0c, 0x3f, 0x10, 0xb2, 0xe8, 0x3e,
  0xe2, 0x97, 0xd9, 0x3e, 0xd6, 0x54, 0xa6, 0x3e, 0x56, 0xf9, 0x9d, 0x3e,
  0xbf, 0xbf, 0x62, 0x3e, 0xe7, 0x83, 0x99, 0x3e, 0x68, 0x80, 0x62, 0x3e,
  0x11, 0x4b, 0x83, 0x3e, 0xd3, 0xd7, 0x3b, 0x3e, 0x56, 0x3c, 0x81, 0x3e,
  0xcd, 0x34, 0x9e, 0x3e, 0x10, 0x88, 0xd8, 0x3e, 0xd9, 0xc5, 0x0f, 0x3f,
  0x1a, 0x95, 0xe2, 0x3e, 0x18, 0xad, 0x0f, 0x3f, 0x0d, 0x3e, 0xd1, 0x3e,
  0x0c, 0xc9, 0xa8, 0x3e, 0x47, 0xc8, 0x4b, 0x3e, 0xd8, 0x2c, 0x9f, 0x3e,
  0x46, 0x36, 0xc9, 0x3e, 0x54, 0xd3, 0x45, 0xbd, 0xc6, 0x56, 0xfb, 0x3e,
  0xa5, 0x48, 0xd8, 0x3e, 0x11, 0x50, 0x93, 0x3e, 0x42, 0xdb, 0x3f, 0x3e,
  0x83, 0x9b, 0x05, 0x3f, 0xae, 0x8f, 0xec, 0x3e, 0xaf, 0xc8, 0xc5, 0x3e,
  0x16, 0x86, 0x51, 0x3e, 0x37, 0x03, 0xba, 0x3e, 0x38, 0xee, 0xb5, 0x3e,
  0xa7, 0xc5, 0x82, 0x3e, 0x4e, 0x5e, 0x22, 0x3e, 0x0a, 0x88, 0xb9, 0x3e,
  0x4f, 0x4d, 0xc9, 0x3e, 0x28, 0xf1, 0x1e, 0x3e, 0x6e, 0x3e, 0x0f, 0x3e,
  0x4b, 0x58, 0xc6, 0x3e, 0x8d, 0x43, 0x9c, 0x3e, 0xb6, 0x7c, 0x49, 0x3e,
  0x90, 0xb0, 0x81, 0x3e, 0xb4, 0xdc, 0x90, 0x3e, 0xf6, 0x85, 0x82, 0x3e,
  0x4e, 0x51, 0x88, 0x3e, 0x6f, 0x56, 0x15, 0x3f, 0x12, 0x12, 0xae, 0x3e,
  0xfc, 0x50, 0xd8, 0x3e, 0x07, 0x73, 0x17, 0x3f, 0x9b, 0xad, 0x11, 0x3e,
  0x15, 0xcc, 0x8b, 0x3e, 0x1a, 0x54, 0x64, 0x3e, 0x4e, 0xfd, 0xfb, 0x3e,
  0xa3, 0x0d, 0xba, 0xbd, 0x83, 0x97, 0x55, 0x3e, 0x44, 0x0a, 0xeb, 0x3e,
  0x46, 0x10, 0x6a, 0x3e, 0x29, 0xc0, 0xac, 0x3e, 0x0e, 0x6c, 0xcb, 0x3e,
  0xcf, 0x51, 0x9d, 0x3e, 0xc5, 0x0e, 0xb3, 0x3e, 0x03, 0xd7, 0x0f, 0x3f,
  0x14, 0x68, 0xa2, 0x3e, 0x29, 0xf4, 0xd7, 0x3e, 0x75, 0xec, 0x16, 0x3f,
  0x11, 0x56, 0xa1, 0x3e, 0x77, 0x64, 0xd1, 0x3e, 0x6d, 0xbb, 0xfc, 0x3e,
  0xb3, 0x81, 0x4e, 0x3e, 0x3e, 0xa4, 0x80, 0x3d, 0xbd, 0x90, 0xe4, 0x3e,
  0xb0, 0x99, 0xcd, 0x3e, 0x4f, 0x93, 0xd4, 0x3e, 0x72, 0x85, 0x68, 0x3e,
  0xbd, 0x87, 0x88, 0x3e, 0x19, 0x5b, 0x79, 0x3e, 0x7d, 0x06, 0xfb, 0x3e,
  0x70, 0x5a, 0x00, 0x3f, 0x0a, 0xf6, 0xbe, 0x3e, 0x5a, 0x6e, 0xde, 0x3e,
  0x35, 0x25, 0x07, 0x3f, 0xdb, 0x61, 0x84, 0x3e, 0x47, 0xab, 0x14, 0x3f,
  0x17, 0x6f, 0x1d, 0x3f, 0x15, 0x03, 0xd7, 0x3e, 0x2b, 0x08, 0x0f, 0x3e,
  0x5f, 0x31, 0x56, 0x3e, 0x10, 0x92, 0xc9, 0x3e, 0xd2, 0x18, 0x8b, 0x3e,
  0x42, 0x89, 0xd1, 0x3e, 0x71, 0x31, 0xfc, 0x3e, 0x1c, 0x31, 0xab, 0x3e,
  0x90, 0xcc, 0xbb, 0x3e, 0x16, 0xb1, 0x20, 0x3f, 0xbf, 0x23, 0x64, 0x3e,
  0x23, 0xa4, 0x0b, 0x3f, 0xb4, 0x90, 0xba, 0x3e, 0x6a, 0x88, 0xd1, 0x3e,
  0x4f, 0x08, 0xd5, 0x3e, 0x2c, 0xcd, 0x13, 0x3f, 0x04, 0x1d, 0xb5, 0x3e,
  0xcc, 0xfd, 0x92, 0xbd, 0x92, 0x35, 0xac, 0x3e, 0xd1, 0x10, 0x0e, 0x3f,
  0x65, 0x36, 0x07, 0x3f, 0x09, 0x67, 0x18, 0x3f, 0x21, 0xdc, 0xdf, 0x3e,
  0xb5, 0xa8, 0xbe, 0x3e, 0x63, 0xe0, 0xd5, 0x3e, 0xeb, 0x67, 0x24, 0x3f,
  0x90, 0x2b, 0x07, 0x3f, 0x8f, 0x16, 0xa6, 0x3e, 0x8b, 0xa7, 0x0e, 0x3f,
  0x72, 0xed, 0x8a, 0x3e, 0x9c, 0xcd, 0x00, 0x3f, 0xaa, 0x46, 0xd1, 0x3e,
  0xb4, 0x1b, 0x10, 0x3f, 0x0c, 0xfe, 0xea, 0x3d, 0x62, 0xf6, 0x0c, 0x3f,
  0x29, 0x55, 0x71, 0x3e, 0xd0, 0xa1, 0xe9, 0xbe, 0xce, 0x79, 0x2b, 0xbf,
  0x1b, 0x06, 0xbe, 0xbe, 0x6b, 0x24, 0x2e, 0xbf, 0x1f, 0xcc, 0x20, 0xbf,
  0x93, 0xf4, 0xcf, 0xbe, 0x40, 0x17, 0xc0, 0xbe, 0xb6, 0x81, 0xe1, 0xbe,
  0x80, 0xdd, 0x03, 0xbf, 0xdd, 0x3b, 0x9c, 0xbe, 0x70, 0x4e, 0x37, 0xbf,
  0x84, 0xcd, 0x13, 0xbf, 0x80, 0x64, 0x11, 0xbf, 0x15, 0x8d, 0x38, 0x3f,
  0xd0, 0x57, 0x3d, 0xbf, 0x19, 0x66, 0xc5, 0xbe, 0x51, 0x0f, 0x15, 0xbf,
  0x04, 0x70, 0x30, 0xbf, 0x0c, 0x3a, 0x09, 0xbf, 0x86, 0xeb, 0xcd, 0xbe,
  0xee, 0x6c, 0x33, 0xbf, 0x35, 0x6b, 0x08, 0xbf, 0x29, 0x04, 0xc9, 0xbe,
  0x5b, 0xe1, 0x17, 0xbf, 0xaf, 0xc7, 0x04, 0xbf, 0x8d, 0xb5, 0xa8, 0xbe,
  0x8e, 0x54, 0xec, 0xbe, 0x24, 0x8b, 0x2b, 0xbf, 0xfa, 0x13, 0x4d, 0xbf,
  0x85, 0xcc, 0x1b, 0x3f, 0x14, 0xad, 0xd5, 0xbe, 0x07, 0x7c, 0x26, 0xbf,
  0x39, 0x7a, 0xe7, 0xbe, 0x2a, 0x25, 0xe2, 0xbe, 0x48, 0x2e, 0x20, 0xbf,
  0x20, 0x16, 0x2b, 0xbf, 0xd7, 0x09, 0x01, 0xbf, 0x36, 0xf7, 0x31, 0xbf,
  0x9a, 0xbd, 0x21, 0xbf, 0xda, 0xa5, 0x1e, 0xbf, 0xda, 0xcb, 0xda, 0xbe,
  0x9d, 0x11, 0x15, 0xbf, 0x80, 0x4f, 0x29, 0xbf, 0xdb, 0x35, 0x06, 0xbf,
  0x5b, 0xc2, 0x1c, 0xbf, 0x65, 0xc6, 0x1c, 0x3f, 0x56, 0x25, 0xc4, 0xbe,
  0x64, 0x2e, 0x2d, 0xbf, 0xc7, 0xa8, 0xd3, 0xbe, 0x98, 0x56, 0xf9, 0xbe,
  0x28, 0x11, 0xcb, 0xbe, 0x06, 0xa2, 0x22, 0xbf, 0xb8, 0xb7, 0x05, 0xbf,
  0x72, 0xd0, 0x5c, 0xbe, 0x0f, 0x31, 0x15, 0xbe, 0x2b, 0x66, 0xb4, 0xbe,
  0x58, 0x19, 0x0f, 0xbf, 0x6a, 0x97, 0x00, 0xbf, 0x57, 0xc3, 0x0c, 0xbf,
  0xc7, 0x82, 0xeb, 0xbe, 0x36, 0x86, 0x13, 0xbf, 0xb6, 0x2f, 0x07, 0x3f,
  0xea, 0x15, 0x1e, 0xbf, 0x1f, 0x50, 0x6a, 0xbe, 0x66, 0xac, 0x22, 0xbf,
  0x9f, 0xdc, 0x50, 0xbe, 0xfa, 0xa4, 0xa3, 0xbe, 0xef, 0x77, 0x73, 0xbe,
  0x35, 0x75, 0xd3, 0xbe, 0x7d, 0x79, 0x10, 0xbf, 0x59, 0x5d, 0x5e, 0xbd,
  0xa2, 0xcb, 0x98, 0xbe, 0x99, 0xa9, 0x03, 0xbf, 0x35, 0x3f, 0xab, 0xbe,
  0x33, 0xf3, 0x93, 0xbe, 0x64, 0x98, 0xa1, 0xbe, 0x6c, 0xfc, 0xf2, 0xbe,
  0x66, 0xfd, 0x1c, 0x3f, 0xa2, 0x0f, 0x7d, 0xbe, 0xa0, 0x17, 0x04, 0xbf,
  0xad, 0x43, 0xf2, 0xbe, 0x3e, 0xfa, 0x62, 0xbe, 0x1f, 0xcd, 0x35, 0xbe,
  0x25, 0x50, 0x10, 0xbf, 0xd1, 0x91, 0xf3, 0xbe, 0x91, 0xf0, 0x01, 0xbf,
  0xd1, 0xed, 0x09, 0xbe, 0xe7, 0x75, 0xf6, 0xbe, 0xe1, 0xa7, 0x22, 0xbf,
  0x55, 0x61, 0x08, 0xbf, 0xb0, 0x09, 0x09, 0xbf, 0xcd, 0x74, 0x1d, 0xbf,
  0xd9, 0x0f, 0xf1, 0xbe, 0xe5, 0xc5, 0x25, 0x3f, 0xde, 0x57, 0x3b, 0xbe,
  0x3c, 0xe3, 0xef, 0xbe, 0x61, 0xd5, 0xee, 0xbd, 0x3c, 0x20, 0x4b, 0xbe,
  0x75, 0x4a, 0xdd, 0xbd, 0xea, 0x59, 0x38, 0x3e, 0xa1, 0x8b, 0x62, 0x3d,
  0x62, 0xab, 0x39, 0xbe, 0x68, 0x9d, 0x4f, 0x3d, 0xe4, 0xa5, 0x3c, 0x3e,
  0x22, 0x95, 0x63, 0x3c, 0xee, 0xf4, 0x0a, 0x3e, 0x7f, 0x87, 0x93, 0xbd,
  0xf8, 0x9d, 0x2e, 0xbe, 0xa3, 0xb2, 0x26, 0xbe, 0xda, 0xde, 0x16, 0x3d,
  0xc9, 0xf0, 0x89, 0xbc, 0xf3, 0x96, 0x23, 0xbe, 0x28, 0x54, 0x2e, 0xbe,
  0x1a, 0xa1, 0x1f, 0xbe, 0xf8, 0x73, 0x4c, 0x3e, 0x60, 0x9a, 0xc4, 0x3b,
  0xe1, 0x35, 0x2a, 0xbe, 0xc3, 0xf0, 0x9c, 0x3d, 0xd8, 0x73, 0x1a, 0xbe,
  0x41, 0x2f, 0x01, 0x3e, 0x06, 0x5e, 0xee, 0xbd, 0xf1, 0xae, 0xb4, 0xbd,
  0x9f, 0x93, 0xa3, 0x3d, 0xc7, 0x78, 0xe1, 0x3d, 0x30, 0xb6, 0x0b, 0x3d,
  0xf7, 0x3d, 0xaa, 0xbd, 0x6b, 0x99, 0xb9, 0xbc, 0x4e, 0x6a, 0x05, 0xbe,
  0x95, 0x88, 0x39, 0xbe, 0xbc, 0x45, 0x1e, 0xbe, 0x7f, 0xfc, 0xb3, 0xbd,
  0x52, 0xc7, 0x8e, 0xba, 0xee, 0x61, 0xf0, 0x3d, 0x7c, 0xd1, 0x9b, 0x3d,
  0x97, 0x76, 0x02, 0xbd, 0xfa, 0xcd, 0x35, 0xbd, 0x5f, 0x07, 0x4b, 0xbe,
  0x33, 0x00, 0x44, 0x3e, 0x72, 0xe8, 0x32, 0xbe, 0xff, 0xb3, 0x61, 0xbd,
  0x21, 0x1d, 0x35, 0xbe, 0x4f, 0x60, 0x5a, 0x3d, 0xb6, 0xa8, 0x40, 0xbe,
  0x13, 0x2f, 0x40, 0x3c, 0xe6, 0x94, 0x1f, 0x3e, 0x8e, 0x02, 0x5c, 0xbc,
  0xe8, 0xc0, 0x15, 0xbe, 0x11, 0xe7, 0xae, 0x3d, 0x76, 0x92, 0x12, 0x3e,
  0xeb, 0x85, 0xc5, 0xbd, 0xd1, 0xf2, 0x08, 0xbe, 0x81, 0x71, 0x1a, 0xbe,
  0xb0, 0xee, 0x4e, 0xbe, 0xfe, 0x8f, 0xec, 0xbd, 0x4a, 0x63, 0x32, 0xbe,
  0x41, 0xb5, 0x82, 0xbc, 0x54, 0x93, 0x43, 0xbe, 0x48, 0x9c, 0xb5, 0xbd,
  0xd0, 0xe4, 0x9e, 0xbd, 0x73, 0x0e, 0x1e, 0xbe, 0xc6, 0x0b, 0xc2, 0xbd,
  0x8d, 0x9a, 0xdf, 0x3d, 0x6e, 0x00, 0xde, 0xbd, 0xfb, 0xc9, 0xa0, 0x3b,
  0x33, 0x07, 0xea, 0xbd, 0x88, 0x28, 0xf3, 0x3d, 0xce, 0x15, 0x05, 0xbe,
  0x44, 0x99, 0xdc, 0x3c, 0xaa, 0x32, 0xe3, 0x3d, 0xfe, 0xda, 0x09, 0x3e,
  0xbd, 0x93, 0xff, 0x3d, 0xbf, 0x6d, 0x1d, 0xbe, 0xf1, 0xc7, 0x92, 0x3d,
  0xc4, 0xd1, 0xbc, 0x3d, 0xd8, 0xb1, 0x67, 0x3c, 0x03, 0x38, 0x8f, 0x3d,
  0x1c, 0xc8, 0x68, 0xbe, 0xb5, 0xc0, 0xd5, 0x3d, 0xcb, 0xba, 0x9d, 0x3d,
  0xd6, 0x3f, 0xaa, 0xbc, 0x8e, 0x4c, 0x04, 0x3e, 0xb9, 0xdf, 0xad, 0x3d,
  0x4b, 0x64, 0x40, 0xbe, 0xb7, 0x9d, 0xdd, 0x3c, 0x36, 0x15, 0xd2, 0x3d,
  0xcd, 0x9b, 0xe0, 0x3d, 0x8e, 0x11, 0x5f, 0xbe, 0x54, 0x9a, 0x19, 0x3d,
  0x46, 0xcb, 0xd7, 0x3d, 0x14, 0xde, 0xfa, 0x3c, 0x5b, 0x54, 0x40, 0x3c,
  0xb7, 0xc7, 0xb7, 0xbd, 0x2b, 0x12, 0xe2, 0xbe, 0xf2, 0xd2, 0xef, 0xbe,
  0x35, 0x62, 0xca, 0xbe, 0xbd, 0x1a, 0x9a, 0xbe, 0x8c, 0xfd, 0x86, 0xbe,
  0x77, 0xa4, 0x0d, 0xbf, 0x1a, 0xd9, 0xac, 0xbe, 0xbf, 0xce, 0xbb, 0xbe,
  0x9c, 0x98, 0xc0, 0xbe, 0xc2, 0x78, 0xa2, 0xbe, 0x14, 0xa1, 0x81, 0xbe,
  0x17, 0xa8, 0x96, 0xbe, 0xe7, 0x23, 0xb8, 0xbe, 0x4e, 0x8e, 0x2b, 0x3f,
  0x4c, 0xb4, 0x0e, 0xbf, 0x6d, 0x54, 0xc5, 0xbe, 0x38, 0xe0, 0x00, 0xbf,
  0x3a, 0xb5, 0x11, 0xbf, 0x50, 0xc1, 0xfa, 0xbe, 0x57, 0xe4, 0xe2, 0xbe,
  0xbd, 0xb6, 0x01, 0xbf, 0x26, 0xc6, 0x20, 0xbf, 0x58, 0x92, 0x25, 0xbe,
  0x86, 0xe9, 0x09, 0xbf, 0xd0, 0x54, 0xaf, 0xbe, 0xb0, 0x96, 0x13, 0xbe,
  0xf1, 0xa1, 0x8e, 0xbe, 0x5b, 0xcf, 0x06, 0xbf, 0xaf, 0xa0, 0xf0, 0xbe,
  0x3f, 0x99, 0x25, 0x3f, 0xcd, 0xd7, 0xb6, 0xbe, 0xea, 0x0e, 0x7f, 0xbe,
  0x01, 0x74, 0x10, 0xbf, 0xe1, 0xac, 0xd0, 0xbe, 0x1e, 0x37, 0x27, 0xbf,
  0x25, 0xb6, 0x85, 0xbe, 0x22, 0xb7, 0xe8, 0xbe, 0xd8, 0xdc, 0xe1, 0xbe,
  0x48, 0xb1, 0xda, 0xbe, 0x0d, 0x53, 0x02, 0xbf, 0x3b, 0x84, 0x1e, 0xbf,
  0x6b, 0xe3, 0x6b, 0xbe, 0xa4, 0xbb, 0x52, 0xbe, 0xba, 0x75, 0xd1, 0xbe,
  0xe4, 0x02, 0x2f, 0xbf, 0x33, 0xb5, 0x04, 0x3f, 0x34, 0x69, 0xb1, 0xbe,
  0x7c, 0xd9, 0x1b, 0xbf, 0x3d, 0x90, 0xba, 0x3e, 0x42, 0x67, 0xec, 0x3e,
  0xac, 0x0f, 0xa1, 0x3e, 0xe2, 0x2d, 0x05, 0x3f, 0x14, 0x43, 0x22, 0x3e,
  0x33, 0xb3, 0xb1, 0x3e, 0x59, 0xab, 0xf3, 0x3d, 0x23, 0x1e, 0xd4, 0x3e,
  0xca, 0x4a, 0x13, 0x3f, 0xd0, 0x78, 0xe9, 0x3e, 0xf4, 0xcc, 0x96, 0x3e,
  0xd5, 0xfc, 0x0c, 0x3f, 0xc9, 0x17, 0x59, 0x3e, 0x68, 0xe3, 0x7e, 0xbb,
  0x51, 0xb9, 0x8b, 0x3e, 0xcb, 0x1b, 0xcd, 0x3e, 0x5c, 0x50, 0x01, 0x3f,
  0xb9, 0x84, 0xaa, 0x3e, 0xc8, 0x44, 0xcf, 0x3e, 0x29, 0x19, 0x36, 0x3e,
  0xc9, 0x3a, 0x5b, 0x3e, 0x89, 0x5b, 0x8d, 0x3e, 0x78, 0x3b, 0xa0, 0x3e,
  0xa1, 0x22, 0x16, 0x3f, 0x62, 0x7f, 0xa6, 0x3e, 0xbb, 0x21, 0x79, 0x3e,
  0x9f, 0xc8, 0x7b, 0x3e, 0x7b, 0xa8, 0x08, 0x3f, 0x82, 0x3a, 0xe0, 0x3e,
  0xd3, 0xa4, 0x35, 0x3d, 0x81, 0xda, 0xb6, 0x3e, 0xf6, 0x1a, 0x89, 0x3e,
  0x43, 0x5e, 0xab, 0x3e, 0x63, 0x53, 0xf5, 0x3e, 0xf6, 0x77, 0xc0, 0x3e,
  0xf6, 0xdd, 0xb6, 0x3e, 0xa5, 0x74, 0x8e, 0x3e, 0x88, 0x59, 0x92, 0x3e,
  0xe8, 0x1f, 0x8f, 0x3e, 0x80, 0x7e, 0x54, 0x3e, 0x65, 0xbf, 0x55, 0x3e,
  0x20, 0x19, 0xef, 0x3e, 0x1f, 0x71, 0x81, 0x3e, 0x63, 0xa4, 0xb3, 0x3e,
  0x53, 0x4e, 0xee, 0x3e, 0x0d, 0x70, 0xe4, 0x3d, 0x8f, 0x23, 0x83, 0x3e,
  0x28, 0x4b, 0x91, 0x3e, 0x08, 0x45, 0xd7, 0x3e, 0x1c, 0x82, 0x9e, 0x3e,
  0xef, 0x08, 0xe1, 0x3e, 0xfc, 0x51, 0x5d, 0x3e, 0x7c, 0xf5, 0x0d, 0x3e,
  0x44, 0xda, 0x5e, 0x3e, 0xbd, 0x0d, 0xe3, 0x3d, 0x97, 0x6b, 0x0a, 0x3f,
  0x0a, 0xec, 0x0d, 0x3f, 0x93, 0x01, 0x2e, 0x3e, 0x45, 0x56, 0x32, 0x3e,
  0x71, 0xaa, 0x09, 0x3f, 0x5f, 0xdf, 0x80, 0x3e, 0x2a, 0x9c, 0x46, 0xbc,
  0x50, 0x20, 0xda, 0x3e, 0xa1, 0xe4, 0xda, 0x3e, 0x09, 0xc7, 0xef, 0x3e,
  0x49, 0x91, 0x89, 0x3e, 0x23, 0xa0, 0x47, 0x3e, 0xa5, 0xb5, 0x54, 0x3e,
  0xaa, 0x0b, 0xd1, 0x3e, 0x9d, 0xda, 0x99, 0x3e, 0x55, 0xa3, 0xca, 0x3e,
  0x5b, 0x04, 0xcd, 0x3e, 0xff, 0x02, 0x71, 0x3e, 0xdf, 0xf9, 0xcb, 0x3d,
  0x13, 0xb6, 0xe8, 0x3e, 0xe0, 0xd2, 0x71, 0x3e, 0x5f, 0xad, 0xe1, 0x3e,
  0xab, 0xb0, 0xd5, 0x3d, 0x52, 0x07, 0xb0, 0x3e, 0xbe, 0x38, 0x41, 0x3e,
  0x61, 0x0c, 0xcc, 0x3e, 0x7d, 0xc4, 0xcb, 0x3e, 0xf0, 0x14, 0xa2, 0x3e,
  0x6d, 0xa6, 0x21, 0x3e, 0xea, 0xef, 0x81, 0x3e, 0xdf, 0x43, 0xd4, 0x3e,
  0x98, 0x46, 0x8c, 0x3e, 0xa0, 0xaf, 0xf0, 0x3e, 0xbf, 0xb7, 0x6e, 0x3e,
  0xc5, 0xff, 0xce, 0x3e, 0x49, 0x5d, 0xfc, 0x3e, 0x31, 0x4d, 0x8e, 0x3e,
  0xb5, 0x83, 0xd5, 0x3e, 0xf9, 0x5d, 0xb1, 0x3b, 0x1e, 0x74, 0xc1, 0x3e,
  0x61, 0x5c, 0xb2, 0x3e, 0x5a, 0xff, 0xff, 0xff, 0x04, 0x00, 0x00, 0x00,
  0x0c, 0x00, 0x00, 0x00, 0xff, 0xff, 0xff, 0xff, 0x7e, 0x00, 0x00, 0x00,
  0x10, 0x00, 0x00, 0x00, 0x72, 0xff, 0xff, 0xff, 0x04, 0x00, 0x00, 0x00,
  0x0c, 0x00, 0x00, 0x00, 0xff, 0xff, 0xff, 0xff, 0x3f, 0x00, 0x00, 0x00,
  0x10, 0x00, 0x00, 0x00, 0x8a, 0xff, 0xff, 0xff, 0x04, 0x00, 0x00, 0x00,
  0x0c, 0x00, 0x00, 0x00, 0xff, 0xff, 0xff, 0xff, 0x3d, 0x00, 0x00, 0x00,
  0x20, 0x00, 0x00, 0x00, 0xa2, 0xff, 0xff, 0xff, 0x04, 0x00, 0x00, 0x00,
  0x04, 0x00, 0x00, 0x00, 0x31, 0xd8, 0x5f, 0xbe, 0xb2, 0xff, 0xff, 0xff,
  0x04, 0x00, 0x00, 0x00, 0x40, 0x00, 0x00, 0x00, 0x7d, 0xbe, 0x2a, 0xbb,
  0xb1, 0x41, 0x42, 0xbb, 0xac, 0xf0, 0x73, 0xbb, 0x02, 0x0e, 0x63, 0xbb,
  0x92, 0xfb, 0x7e, 0xbb, 0x98, 0xe0, 0x3b, 0xbb, 0x39, 0x2f, 0x88, 0xbb,
  0x0e, 0xa5, 0x65, 0xbb, 0xd4, 0xe2, 0x35, 0xbb, 0x94, 0xe8, 0x75, 0xbb,
  0xac, 0xa5, 0x78, 0xbb, 0xad, 0x2b, 0x78, 0xbb, 0x32, 0x13, 0x67, 0xbb,
  0xce, 0x03, 0xf8, 0x3e, 0xb9, 0xfb, 0x63, 0xbb, 0x7f, 0x14, 0x76, 0xbb,
  0x00, 0x00, 0x06, 0x00, 0x08, 0x00, 0x04, 0x00, 0x06, 0x00, 0x00, 0x00,
  0x04, 0x00, 0x00, 0x00, 0x80, 0x00, 0x00, 0x00, 0xa1, 0xf4, 0xd0, 0x3e,
  0x48, 0x29, 0xed, 0xbd, 0x21, 0x21, 0xc3, 0x3e, 0x3c, 0xe7, 0x77, 0xbc,
  0x43, 0x4b, 0x2a, 0xbd, 0xe2, 0xff, 0x71, 0xbd, 0x33, 0xf4, 0xaf, 0xbd,
  0x06, 0xb8, 0xc3, 0x3e, 0xc1, 0x01, 0x89, 0xbd, 0x9a, 0x91, 0x97, 0xbd,
  0x2e, 0x23, 0xcc, 0xbc, 0xd7, 0xe7, 0x8e, 0xbd, 0x69, 0xe5, 0x05, 0xbd,
  0x2c, 0x2f, 0x4b, 0xbd, 0x02, 0x9c, 0xbb, 0xbc, 0x46, 0x16, 0xaa, 0xbd,
  0x4a, 0xd0, 0x6a, 0xbd, 0x85, 0x41, 0xc0, 0xbb, 0xee, 0xa7, 0xb1, 0xbc,
  0x59, 0x3f, 0x8f, 0xbd, 0xf8, 0x65, 0x9e, 0xbd, 0xb8, 0x3e, 0x37, 0xbd,
  0xdc, 0xd6, 0x82, 0xbd, 0xea, 0xb7, 0x91, 0xbd, 0x24, 0xf5, 0xdf, 0xbd,
  0x39, 0xbf, 0xe4, 0x3e, 0x1d, 0xd8, 0xad, 0x3e, 0x42, 0x6a, 0xc4, 0xbb,
  0x89, 0xf6, 0xf9, 0xbc, 0x6b, 0x61, 0xbc, 0x3e, 0x25, 0xe6, 0xb9, 0xbd,
  0xbf, 0x53, 0x82, 0xbd, 0xc4, 0xf2, 0xff, 0xff, 0xc8, 0xf2, 0xff, 0xff,
  0x0f, 0x00, 0x00, 0x00, 0x4d, 0x4c, 0x49, 0x52, 0x20, 0x43, 0x6f, 0x6e,
  0x76, 0x65, 0x72, 0x74, 0x65, 0x64, 0x2e, 0x00, 0x01, 0x00, 0x00, 0x00,
  0x14, 0x00, 0x00, 0x00, 0x00, 0x00, 0x0e, 0x00, 0x18, 0x00, 0x14, 0x00,
  0x10, 0x00, 0x0c, 0x00, 0x08, 0x00, 0x04, 0x00, 0x0e, 0x00, 0x00, 0x00,
  0x14, 0x00, 0x00, 0x00, 0x1c, 0x00, 0x00, 0x00, 0xe0, 0x02, 0x00, 0x00,
  0xe4, 0x02, 0x00, 0x00, 0xe8, 0x02, 0x00, 0x00, 0x04, 0x00, 0x00, 0x00,
  0x6d, 0x61, 0x69, 0x6e, 0x00, 0x00, 0x00, 0x00, 0x0c, 0x00, 0x00, 0x00,
  0x98, 0x02, 0x00, 0x00, 0x34, 0x02, 0x00, 0x00, 0xfc, 0x01, 0x00, 0x00,
  0xc0, 0x01, 0x00, 0x00, 0x6c, 0x01, 0x00, 0x00, 0x34, 0x01, 0x00, 0x00,
  0x04, 0x01, 0x00, 0x00, 0xbc, 0x00, 0x00, 0x00, 0x94, 0x00, 0x00, 0x00,
  0x60, 0x00, 0x00, 0x00, 0x28, 0x00, 0x00, 0x00, 0x04, 0x00, 0x00, 0x00,
  0x36, 0xfe, 0xff, 0xff, 0x0c, 0x00, 0x00, 0x00, 0x10, 0x00, 0x00, 0x00,
  0x06, 0x00, 0x00, 0x00, 0x01, 0x00, 0x00, 0x00, 0x17, 0x00, 0x00, 0x00,
  0x01, 0x00, 0x00, 0x00, 0x16, 0x00, 0x00, 0x00, 0x26, 0xfe, 0xff, 0xff,
  0x14, 0x00, 0x00, 0x00, 0x00, 0x00, 0x00, 0x08, 0x10, 0x00, 0x00, 0x00,
  0x14, 0x00, 0x00, 0x00, 0x05, 0x00, 0x00, 0x00, 0x88, 0xf3, 0xff, 0xff,
  0x01, 0x00, 0x00, 0x00, 0x16, 0x00, 0x00, 0x00, 0x03, 0x00, 0x00, 0x00,
  0x15, 0x00, 0x00, 0x00, 0x09, 0x00, 0x00, 0x00, 0x03, 0x00, 0x00, 0x00,
  0x5a, 0xfe, 0xff, 0xff, 0x14, 0x00, 0x00, 0x00, 0x00, 0x00, 0x00, 0x1b,
  0x10, 0x00, 0x00, 0x00, 0x14, 0x00, 0x00, 0x00, 0x04, 0x00, 0x00, 0x00,
  0xbc, 0xf3, 0xff, 0xff, 0x01, 0x00, 0x00, 0x00, 0x15, 0x00, 0x00, 0x00,
  0x02, 0x00, 0x00, 0x00, 0x14, 0x00, 0x00, 0x00, 0x0a, 0x00, 0x00, 0x00,
  0xba, 0xfe, 0xff, 0xff, 0x0c, 0x00, 0x00, 0x00, 0x10, 0x00, 0x00, 0x00,
  0x02, 0x00, 0x00, 0x00, 0x01, 0x00, 0x00, 0x00, 0x14, 0x00, 0x00, 0x00,
  0x02, 0x00, 0x00, 0x00, 0x13, 0x00, 0x00, 0x00, 0x04, 0x00, 0x00, 0x00,
  0xae, 0xfe, 0xff, 0xff, 0x14, 0x00, 0x00, 0x00, 0x00, 0x00, 0x00, 0x01,
  0x20, 0x00, 0x00, 0x00, 0x24, 0x00, 0x00, 0x00, 0x01, 0x00, 0x00, 0x00,
  0xa0, 0xfe, 0xff, 0xff, 0x00, 0x00, 0x00, 0x01, 0x01, 0x00, 0x00, 0x00,
  0x01, 0x00, 0x00, 0x00, 0x00, 0x00, 0x00, 0x01, 0x01, 0x00, 0x00, 0x00,
  0x13, 0x00, 0x00, 0x00, 0x03, 0x00, 0x00, 0x00, 0x12, 0x00, 0x00, 0x00,
  0x07, 0x00, 0x00, 0x00, 0x01, 0x00, 0x00, 0x00, 0x92, 0xfe, 0xff, 0xff,
  0x10, 0x00, 0x00, 0x00, 0x00, 0x00, 0x00, 0x34, 0x0c, 0x00, 0x00, 0x00,
  0x10, 0x00, 0x00, 0x00, 0x50, 0xf4, 0xff, 0xff, 0x01, 0x00, 0x00, 0x00,
  0x12, 0x00, 0x00, 0x00, 0x02, 0x00, 0x00, 0x00, 0x11, 0x00, 0x00, 0x00,
  0x0b, 0x00, 0x00, 0x00, 0x4e, 0xff, 0xff, 0xff, 0x0c, 0x00, 0x00, 0x00,
  0x10, 0x00, 0x00, 0x00, 0x02, 0x00, 0x00, 0x00, 0x01, 0x00, 0x00, 0x00,
  0x11, 0x00, 0x00, 0x00, 0x02, 0x00, 0x00, 0x00, 0x10, 0x00, 0x00, 0x00,
  0x05, 0x00, 0x00, 0x00, 0x00, 0x00, 0x0e, 0x00, 0x1a, 0x00, 0x14, 0x00,
  0x10, 0x00, 0x0c, 0x00, 0x0b, 0x00, 0x04, 0x00, 0x0e, 0x00, 0x00, 0x00,
  0x24, 0x00, 0x00, 0x00, 0x00, 0x00, 0x00, 0x05, 0x34, 0x00, 0x00, 0x00,
  0x38, 0x00, 0x00, 0x00, 0x03, 0x00, 0x00, 0x00, 0x00, 0x00, 0x0e, 0x00,
  0x18, 0x00, 0x17, 0x00, 0x10, 0x00, 0x0c, 0x00, 0x08, 0x00, 0x04, 0x00,
  0x0e, 0x00, 0x00, 0x00, 0x01, 0x00, 0x00, 0x00, 0x02, 0x00, 0x00, 0x00,
  0x01, 0x00, 0x00, 0x00, 0x02, 0x00, 0x00, 0x00, 0x00, 0x00, 0x00, 0x01,
  0x01, 0x00, 0x00, 0x00, 0x10, 0x00, 0x00, 0x00, 0x01, 0x00, 0x00, 0x00,
  0x0f, 0x00, 0x00, 0x00, 0x42, 0xff, 0xff, 0xff, 0x10, 0x00, 0x00, 0x00,
  0x00, 0x00, 0x00, 0x34, 0x0c, 0x00, 0x00, 0x00, 0x10, 0x00, 0x00, 0x00,
  0x00, 0xf5, 0xff, 0xff, 0x01, 0x00, 0x00, 0x00, 0x0f, 0x00, 0x00, 0x00,
  0x02, 0x00, 0x00, 0x00, 0x0e, 0x00, 0x00, 0x00, 0x0a, 0x00, 0x00, 0x00,
  0x00, 0x00, 0x0a, 0x00, 0x10, 0x00, 0x0c, 0x00, 0x08, 0x00, 0x04, 0x00,
  0x0a, 0x00, 0x00, 0x00, 0x0c, 0x00, 0x00, 0x00, 0x10, 0x00, 0x00, 0x00,
  0x02, 0x00, 0x00, 0x00, 0x01, 0x00, 0x00, 0x00, 0x0e, 0x00, 0x00, 0x00,
  0x02, 0x00, 0x00, 0x00, 0x0d, 0x00, 0x00, 0x00, 0x06, 0x00, 0x00, 0x00,
  0x00, 0x00, 0x0e, 0x00, 0x18, 0x00, 0x14, 0x00, 0x10, 0x00, 0x0c, 0x00,
  0x0b, 0x00, 0x04, 0x00, 0x0e, 0x00, 0x00, 0x00, 0x20, 0x00, 0x00, 0x00,
  0x00, 0x00, 0x00, 0x01, 0x2c, 0x00, 0x00, 0x00, 0x30, 0x00, 0x00, 0x00,
  0x01, 0x00, 0x00, 0x00, 0x0c, 0x00, 0x14, 0x00, 0x13, 0x00, 0x0c, 0x00,
  0x08, 0x00, 0x07, 0x00, 0x0c, 0x00, 0x00, 0x00, 0x00, 0x00, 0x00, 0x01,
  0x01, 0x00, 0x00, 0x00, 0x01, 0x00, 0x00, 0x00, 0x00, 0x00, 0x00, 0x01,
  0x01, 0x00, 0x00, 0x00, 0x0d, 0x00, 0x00, 0x00, 0x03, 0x00, 0x00, 0x00,
  0x0c, 0x00, 0x00, 0x00, 0x08, 0x00, 0x00, 0x00, 0x02, 0x00, 0x00, 0x00,
  0x00, 0x00, 0x0e, 0x00, 0x14, 0x00, 0x00, 0x00, 0x10, 0x00, 0x0c, 0x00,
  0x0b, 0x00, 0x04, 0x00, 0x0e, 0x00, 0x00, 0x00, 0x10, 0x00, 0x00, 0x00,
  0x00, 0x00, 0x00, 0x34, 0x0c, 0x00, 0x00, 0x00, 0x10, 0x00, 0x00, 0x00,
  0xcc, 0xf5, 0xff, 0xff, 0x01, 0x00, 0x00, 0x00, 0x0c, 0x00, 0x00, 0x00,
  0x02, 0x00, 0x00, 0x00, 0x00, 0x00, 0x00, 0x00, 0x0b, 0x00, 0x00, 0x00,
  0x01, 0x00, 0x00, 0x00, 0x17, 0x00, 0x00, 0x00, 0x01, 0x00, 0x00, 0x00,
  0x00, 0x00, 0x00, 0x00, 0x18, 0x00, 0x00, 0x00, 0xdc, 0x09, 0x00, 0x00,
  0x88, 0x09, 0x00, 0x00, 0x34, 0x09, 0x00, 0x00, 0xf8, 0x08, 0x00, 0x00,
  0xb8, 0x08, 0x00, 0x00, 0x60, 0x08, 0x00, 0x00, 0x20, 0x08, 0x00, 0x00,
  0xd8, 0x07, 0x00, 0x00, 0x90, 0x07, 0x00, 0x00, 0x50, 0x07, 0x00, 0x00,
  0x14, 0x07, 0x00, 0x00, 0xd4, 0x06, 0x00, 0x00, 0x54, 0x06, 0x00, 0x00,
  0x7c, 0x05, 0x00, 0x00, 0xd0, 0x04, 0x00, 0x00, 0x4c, 0x04, 0x00, 0x00,
  0xd4, 0x03, 0x00, 0x00, 0x5c, 0x03, 0x00, 0x00, 0xdc, 0x02, 0x00, 0x00,
  0xfc, 0x01, 0x00, 0x00, 0x48, 0x01, 0x00, 0x00, 0xd8, 0x00, 0x00, 0x00,
  0x60, 0x00, 0x00, 0x00, 0x04, 0x00, 0x00, 0x00, 0x9a, 0xf6, 0xff, 0xff,
  0x00, 0x00, 0x00, 0x01, 0x14, 0x00, 0x00, 0x00, 0x1c, 0x00, 0x00, 0x00,
  0x1c, 0x00, 0x00, 0x00, 0x18, 0x00, 0x00, 0x00, 0x34, 0x00, 0x00, 0x00,
  0x02, 0x00, 0x00, 0x00, 0xff, 0xff, 0xff, 0xff, 0x01, 0x00, 0x00, 0x00,
  0x80, 0xf6, 0xff, 0xff, 0x1b, 0x00, 0x00, 0x00, 0x53, 0x74, 0x61, 0x74,
  0x65, 0x66, 0x75, 0x6c, 0x50, 0x61, 0x72, 0x74, 0x69, 0x74, 0x69, 0x6f,
  0x6e, 0x65, 0x64, 0x43, 0x61, 0x6c, 0x6c, 0x5f, 0x31, 0x3a, 0x30, 0x00,
  0x02, 0x00, 0x00, 0x00, 0x01, 0x00, 0x00, 0x00, 0x01, 0x00, 0x00, 0x00,
  0xf2, 0xf6, 0xff, 0xff, 0x00, 0x00, 0x00, 0x01, 0x14, 0x00, 0x00, 0x00,
  0x1c, 0x00, 0x00, 0x00, 0x1c, 0x00, 0x00, 0x00, 0x17, 0x00, 0x00, 0x00,
  0x50, 0x00, 0x00, 0x00, 0x02, 0x00, 0x00, 0x00, 0xff, 0xff, 0xff, 0xff,
  0x01, 0x00, 0x00, 0x00, 0xd8, 0xf6, 0xff, 0xff, 0x34, 0x00, 0x00, 0x00,
  0x73, 0x65, 0x71, 0x75, 0x65, 0x6e, 0x74, 0x69, 0x61, 0x6c, 0x5f, 0x31,
  0x2f, 0x64, 0x65, 0x6e, 0x73, 0x65, 0x5f, 0x31, 0x2f, 0x4d, 0x61, 0x74,
  0x4d, 0x75, 0x6c, 0x3b, 0x73, 0x65, 0x71, 0x75, 0x65, 0x6e, 0x74, 0x69,
  0x61, 0x6c, 0x5f, 0x31, 0x2f, 0x64, 0x65, 0x6e, 0x73, 0x65, 0x5f, 0x31,
  0x2f, 0x41, 0x64, 0x64, 0x00, 0x00, 0x00, 0x00, 0x02, 0x00, 0x00, 0x00,
  0x01, 0x00, 0x00, 0x00, 0x01, 0x00, 0x00, 0x00, 0x66, 0xf7, 0xff, 0xff,
  0x00, 0x00, 0x00, 0x01, 0x14, 0x00, 0x00, 0x00, 0x1c, 0x00, 0x00, 0x00,
  0x1c, 0x00, 0x00, 0x00, 0x16, 0x00, 0x00, 0x00, 0x48, 0x00, 0x00, 0x00,
  0x02, 0x00, 0x00, 0x00, 0xff, 0xff, 0xff, 0xff, 0x20, 0x00, 0x00, 0x00,
  0x4c, 0xf7, 0xff, 0xff, 0x2c, 0x00, 0x00, 0x00, 0x73, 0x65, 0x71, 0x75,
  0x65, 0x6e, 0x74, 0x69, 0x61, 0x6c, 0x5f, 0x31, 0x2f, 0x67, 0x6c, 0x6f,
  0x62, 0x61, 0x6c, 0x5f, 0x61, 0x76, 0x65, 0x72, 0x61, 0x67, 0x65, 0x5f,
  0x70, 0x6f, 0x6f, 0x6c, 0x69, 0x6e, 0x67, 0x31, 0x64, 0x5f, 0x31, 0x2f,
  0x4d, 0x65, 0x61, 0x6e, 0x00, 0x00, 0x00, 0x00, 0x02, 0x00, 0x00, 0x00,
  0x01, 0x00, 0x00, 0x00, 0x20, 0x00, 0x00, 0x00, 0xd2, 0xf7, 0xff, 0xff,
  0x00, 0x00, 0x00, 0x01, 0x14, 0x00, 0x00, 0x00, 0x20, 0x00, 0x00, 0x00,
  0x20, 0x00, 0x00, 0x00, 0x15, 0x00, 0x00, 0x00, 0x88, 0x00, 0x00, 0x00,
  0x03, 0x00, 0x00, 0x00, 0xff, 0xff, 0xff, 0xff, 0x3d, 0x00, 0x00, 0x00,
  0x20, 0x00, 0x00, 0x00, 0xbc, 0xf7, 0xff, 0xff, 0x69, 0x00, 0x00, 0x00,
  0x73, 0x65, 0x71, 0x75, 0x65, 0x6e, 0x74, 0x69, 0x61, 0x6c, 0x5f, 0x31,
  0x2f, 0x63, 0x6f, 0x6e, 0x76, 0x31, 0x64, 0x5f, 0x31, 0x5f, 0x32, 0x2f,
  0x52, 0x65, 0x6c, 0x75, 0x3b, 0x73, 0x65, 0x71, 0x75, 0x65, 0x6e, 0x74,
  0x69, 0x61, 0x6c, 0x5f, 0x31, 0x2f, 0x63, 0x6f, 0x6e, 0x76, 0x31, 0x64,
  0x5f, 0x31, 0x5f, 0x32, 0x2f, 0x42, 0x69, 0x61, 0x73, 0x41, 0x64, 0x64,
  0x3b, 0x73, 0x65, 0x71, 0x75, 0x65, 0x6e, 0x74, 0x69, 0x61, 0x6c, 0x5f,
  0x31, 0x2f, 0x63, 0x6f, 0x6e, 0x76, 0x31, 0x64, 0x5f, 0x31, 0x5f, 0x32,
  0x2f, 0x63, 0x6f, 0x6e, 0x76, 0x6f, 0x6c, 0x75, 0x74, 0x69, 0x6f, 0x6e,
  0x2f, 0x53, 0x71, 0x75, 0x65, 0x65, 0x7a, 0x65, 0x3b, 0x00, 0x00, 0x00,
  0x03, 0x00, 0x00, 0x00, 0x01, 0x00, 0x00, 0x00, 0x3d, 0x00, 0x00, 0x00,
  0x20, 0x00, 0x00, 0x00, 0x82, 0xf8, 0xff, 0xff, 0x00, 0x00, 0x00, 0x01,
  0x14, 0x00, 0x00, 0x00, 0x24, 0x00, 0x00, 0x00, 0x24, 0x00, 0x00, 0x00,
  0x14, 0x00, 0x00, 0x00, 0xb0, 0x00, 0x00, 0x00, 0x04, 0x00, 0x00, 0x00,
  0xff, 0xff, 0xff, 0xff, 0x01, 0x00, 0x00, 0x00, 0x3d, 0x00, 0x00, 0x00,
  0x20, 0x00, 0x00, 0x00, 0x70, 0xf8, 0xff, 0xff, 0x8d, 0x00, 0x00, 0x00,
  0x73, 0x65, 0x71, 0x75, 0x65, 0x6e, 0x74, 0x69, 0x61, 0x6c, 0x5f, 0x31,
  0x2f, 0x63, 0x6f, 0x6e, 0x76, 0x31, 0x64, 0x5f, 0x31, 0x5f, 0x32, 0x2f,
  0x52, 0x65, 0x6c, 0x75, 0x3b, 0x73, 0x65, 0x71, 0x75, 0x65, 0x6e, 0x74,
  0x69, 0x61, 0x6c, 0x5f, 0x31, 0x2f, 0x63, 0x6f, 0x6e, 0x76, 0x31, 0x64,
  0x5f, 0x31, 0x5f, 0x32, 0x2f, 0x42, 0x69, 0x61, 0x73, 0x41, 0x64, 0x64,
  0x3b, 0x73, 0x65, 0x71, 0x75, 0x65, 0x6e, 0x74, 0x69, 0x61, 0x6c, 0x5f,
  0x31, 0x2f, 0x63, 0x6f, 0x6e, 0x76, 0x31, 0x64, 0x5f, 0x31, 0x5f, 0x32,
  0x2f, 0x63, 0x6f, 0x6e, 0x76, 0x6f, 0x6c, 0x75, 0x74, 0x69, 0x6f, 0x6e,
  0x2f, 0x53, 0x71, 0x75, 0x65, 0x65, 0x7a, 0x65, 0x3b, 0x3b, 0x73, 0x65,
  0x71, 0x75, 0x65, 0x6e, 0x74, 0x69, 0x61, 0x6c, 0x5f, 0x31, 0x2f, 0x63,
  0x6f, 0x6e, 0x76, 0x31, 0x64, 0x5f, 0x31, 0x5f, 0x32, 0x2f, 0x63, 0x6f,
  0x6e, 0x76, 0x6f, 0x6c, 0x75, 0x74, 0x69, 0x6f, 0x6e, 0x00, 0x00, 0x00,
  0x04, 0x00, 0x00, 0x00, 0x01, 0x00, 0x00, 0x00, 0x01, 0x00, 0x00, 0x00,
  0x3d, 0x00, 0x00, 0x00, 0x20, 0x00, 0x00, 0x00, 0x5e, 0xf9, 0xff, 0xff,
  0x00, 0x00, 0x00, 0x01, 0x14, 0x00, 0x00, 0x00, 0x24, 0x00, 0x00, 0x00,
  0x24, 0x00, 0x00, 0x00, 0x13, 0x00, 0x00, 0x00, 0x50, 0x00, 0x00, 0x00,
  0x04, 0x00, 0x00, 0x00, 0xff, 0xff, 0xff, 0xff, 0x01, 0x00, 0x00, 0x00,
  0x3f, 0x00, 0x00, 0x00, 0x10, 0x00, 0x00, 0x00, 0x4c, 0xf9, 0xff, 0xff,
  0x2e, 0x00, 0x00, 0x00, 0x73, 0x65, 0x71, 0x75, 0x65, 0x6e, 0x74, 0x69,
  0x61, 0x6c, 0x5f, 0x31, 0x2f, 0x63, 0x6f, 0x6e, 0x76, 0x31, 0x64, 0x5f,
  0x31, 0x5f, 0x32, 0x2f, 0x63, 0x6f, 0x6e, 0x76, 0x6f, 0x6c, 0x75, 0x74,
  0x69, 0x6f, 0x6e, 0x2f, 0x45, 0x78, 0x70, 0x61, 0x6e, 0x64, 0x44, 0x69,
  0x6d, 0x73, 0x00, 0x00, 0x04, 0x00, 0x00, 0x00, 0x01, 0x00, 0x00, 0x00,
  0x01, 0x00, 0x00, 0x00, 0x3f, 0x00, 0x00, 0x00, 0x10, 0x00, 0x00, 0x00,
  0xda, 0xf9, 0xff, 0xff, 0x00, 0x00, 0x00, 0x01, 0x14, 0x00, 0x00, 0x00,
  0x20, 0x00, 0x00, 0x00, 0x20, 0x00, 0x00, 0x00, 0x12, 0x00, 0x00, 0x00,
  0x4c, 0x00, 0x00, 0x00, 0x03, 0x00, 0x00, 0x00, 0xff, 0xff, 0xff, 0xff,
  0x3f, 0x00, 0x00, 0x00, 0x10, 0x00, 0x00, 0x00, 0xc4, 0xf9, 0xff, 0xff,
  0x2e, 0x00, 0x00, 0x00, 0x73, 0x65, 0x71, 0x75, 0x65, 0x6e, 0x74, 0x69,
  0x61, 0x6c, 0x5f, 0x31, 0x2f, 0x6d, 0x61, 0x78, 0x5f, 0x70, 0x6f, 0x6f,
  0x6c, 0x69, 0x6e, 0x67, 0x31, 0x64, 0x5f, 0x31, 0x2f, 0x4d, 0x61, 0x78,
  0x50, 0x6f, 0x6f, 0x6c, 0x31, 0x64, 0x2f, 0x53, 0x71, 0x75, 0x65, 0x65,
  0x7a, 0x65, 0x00, 0x00, 0x03, 0x00, 0x00, 0x00, 0x01, 0x00, 0x00, 0x00,
  0x3f, 0x00, 0x00, 0x00, 0x10, 0x00, 0x00, 0x00, 0x4e, 0xfa, 0xff, 0xff,
  0x00, 0x00, 0x00, 0x01, 0x14, 0x00, 0x00, 0x00, 0x24, 0x00, 0x00, 0x00,
  0x24, 0x00, 0x00, 0x00, 0x11, 0x00, 0x00, 0x00, 0x48, 0x00, 0x00, 0x00,
  0x04, 0x00, 0x00, 0x00, 0xff, 0xff, 0xff, 0xff, 0x01, 0x00, 0x00, 0x00,
  0x3f, 0x00, 0x00, 0x00, 0x10, 0x00, 0x00, 0x00, 0x3c, 0xfa, 0xff, 0xff,
  0x26, 0x00, 0x00, 0x00, 0x73, 0x65, 0x71, 0x75, 0x65, 0x6e, 0x74, 0x69,
  0x61, 0x6c, 0x5f, 0x31, 0x2f, 0x6d, 0x61, 0x78, 0x5f, 0x70, 0x6f, 0x6f,
  0x6c, 0x69, 0x6e, 0x67, 0x31, 0x64, 0x5f, 0x31, 0x2f, 0x4d, 0x61, 0x78,
  0x50, 0x6f, 0x6f, 0x6c, 0x31, 0x64, 0x00, 0x00, 0x04, 0x00, 0x00, 0x00,
  0x01, 0x00, 0x00, 0x00, 0x01, 0x00, 0x00, 0x00, 0x3f, 0x00, 0x00, 0x00,
  0x10, 0x00, 0x00, 0x00, 0xc2, 0xfa, 0xff, 0xff, 0x00, 0x00, 0x00, 0x01,
  0x14, 0x00, 0x00, 0x00, 0x24, 0x00, 0x00, 0x00, 0x24, 0x00, 0x00, 0x00,
  0x10, 0x00, 0x00, 0x00, 0x54, 0x00, 0x00, 0x00, 0x04, 0x00, 0x00, 0x00,
  0xff, 0xff, 0xff, 0xff, 0x01, 0x00, 0x00, 0x00, 0x7e, 0x00, 0x00, 0x00,
  0x10, 0x00, 0x00, 0x00, 0xb0, 0xfa, 0xff, 0xff, 0x31, 0x00, 0x00, 0x00,
  0x73, 0x65, 0x71, 0x75, 0x65, 0x6e, 0x74, 0x69, 0x61, 0x6c, 0x5f, 0x31,
  0x2f, 0x6d, 0x61, 0x78, 0x5f, 0x70, 0x6f, 0x6f, 0x6c, 0x69, 0x6e, 0x67,
  0x31, 0x64, 0x5f, 0x31, 0x2f, 0x4d, 0x61, 0x78, 0x50, 0x6f, 0x6f, 0x6c,
  0x31, 0x64, 0x2f, 0x45, 0x78, 0x70, 0x61, 0x6e, 0x64, 0x44, 0x69, 0x6d,
  0x73, 0x00, 0x00, 0x00, 0x04, 0x00, 0x00, 0x00, 0x01, 0x00, 0x00, 0x00,
  0x01, 0x00, 0x00, 0x00, 0x7e, 0x00, 0x00, 0x00, 0x10, 0x00, 0x00, 0x00,
  0x42, 0xfb, 0xff, 0xff, 0x00, 0x00, 0x00, 0x01, 0x14, 0x00, 0x00, 0x00,
  0x20, 0x00, 0x00, 0x00, 0x20, 0x00, 0x00, 0x00, 0x0f, 0x00, 0x00, 0x00,
  0x80, 0x00, 0x00, 0x00, 0x03, 0x00, 0x00, 0x00, 0xff, 0xff, 0xff, 0xff,
  0x7e, 0x00, 0x00, 0x00, 0x10, 0x00, 0x00, 0x00, 0x2c, 0xfb, 0xff, 0xff,
  0x63, 0x00, 0x00, 0x00, 0x73, 0x65, 0x71, 0x75, 0x65, 0x6e, 0x74, 0x69,
  0x61, 0x6c, 0x5f, 0x31, 0x2f, 0x63, 0x6f, 0x6e, 0x76, 0x31, 0x64, 0x5f,
  0x31, 0x2f, 0x52, 0x65, 0x6c, 0x75, 0x3b, 0x73, 0x65, 0x71, 0x75, 0x65,
  0x6e, 0x74, 0x69, 0x61, 0x6c, 0x5f, 0x31, 0x2f, 0x63, 0x6f, 0x6e, 0x76,
  0x31, 0x64, 0x5f, 0x31, 0x2f, 0x42, 0x69, 0x61, 0x73, 0x41, 0x64, 0x64,
  0x3b, 0x73, 0x65, 0x71, 0x75, 0x65, 0x6e, 0x74, 0x69, 0x61, 0x6c, 0x5f,
  0x31, 0x2f, 0x63, 0x6f, 0x6e, 0x76, 0x31, 0x64, 0x5f, 0x31, 0x2f, 0x63,
  0x6f, 0x6e, 0x76, 0x6f, 0x6c, 0x75, 0x74, 0x69, 0x6f, 0x6e, 0x2f, 0x53,
  0x71, 0x75, 0x65, 0x65, 0x7a, 0x65, 0x3b, 0x00, 0x03, 0x00, 0x00, 0x00,
  0x01, 0x00, 0x00, 0x00, 0x7e, 0x00, 0x00, 0x00, 0x10, 0x00, 0x00, 0x00,
  0xea, 0xfb, 0xff, 0xff, 0x00, 0x00, 0x00, 0x01, 0x14, 0x00, 0x00, 0x00,
  0x24, 0x00, 0x00, 0x00, 0x24, 0x00, 0x00, 0x00, 0x0e, 0x00, 0x00, 0x00,
  0xa8, 0x00, 0x00, 0x00, 0x04, 0x00, 0x00, 0x00, 0xff, 0xff, 0xff, 0xff,
  0x01, 0x00, 0x00, 0x00, 0x7e, 0x00, 0x00, 0x00, 0x10, 0x00, 0x00, 0x00,
  0xd8, 0xfb, 0xff, 0xff, 0x85, 0x00, 0x00, 0x00, 0x73, 0x65, 0x71, 0x75,
  0x65, 0x6e, 0x74, 0x69, 0x61, 0x6c, 0x5f, 0x31, 0x2f, 0x63, 0x6f, 0x6e,
  0x76, 0x31, 0x64, 0x5f, 0x31, 0x2f, 0x52, 0x65, 0x6c, 0x75, 0x3b, 0x73,
  0x65, 0x71, 0x75, 0x65, 0x6e, 0x74, 0x69, 0x61, 0x6c, 0x5f, 0x31, 0x2f,
  0x63, 0x6f, 0x6e, 0x76, 0x31, 0x64, 0x5f, 0x31, 0x2f, 0x42, 0x69, 0x61,
  0x73, 0x41, 0x64, 0x64, 0x3b, 0x73, 0x65, 0x71, 0x75, 0x65, 0x6e, 0x74,
  0x69, 0x61, 0x6c, 0x5f, 0x31, 0x2f, 0x63, 0x6f, 0x6e, 0x76, 0x31, 0x64,
  0x5f, 0x31, 0x2f, 0x63, 0x6f, 0x6e, 0x76, 0x6f, 0x6c, 0x75, 0x74, 0x69,
  0x6f, 0x6e, 0x2f, 0x53, 0x71, 0x75, 0x65, 0x65, 0x7a, 0x65, 0x3b, 0x3b,
  0x73, 0x65, 0x71, 0x75, 0x65, 0x6e, 0x74, 0x69, 0x61, 0x6c, 0x5f, 0x31,
  0x2f, 0x63, 0x6f, 0x6e, 0x76, 0x31, 0x64, 0x5f, 0x31, 0x2f, 0x63, 0x6f,
  0x6e, 0x76, 0x6f, 0x6c, 0x75, 0x74, 0x69, 0x6f, 0x6e, 0x00, 0x00, 0x00,
  0x04, 0x00, 0x00, 0x00, 0x01, 0x00, 0x00, 0x00, 0x01, 0x00, 0x00, 0x00,
  0x7e, 0x00, 0x00, 0x00, 0x10, 0x00, 0x00, 0x00, 0xbe, 0xfc, 0xff, 0xff,
  0x00, 0x00, 0x00, 0x01, 0x14, 0x00, 0x00, 0x00, 0x24, 0x00, 0x00, 0x00,
  0x24, 0x00, 0x00, 0x00, 0x0d, 0x00, 0x00, 0x00, 0x50, 0x00, 0x00, 0x00,
  0x04, 0x00, 0x00, 0x00, 0xff, 0xff, 0xff, 0xff, 0x01, 0x00, 0x00, 0x00,
  0x80, 0x00, 0x00, 0x00, 0x01, 0x00, 0x00, 0x00, 0xac, 0xfc, 0xff, 0xff,
  0x2c, 0x00, 0x00, 0x00, 0x73, 0x65, 0x71, 0x75, 0x65, 0x6e, 0x74, 0x69,
  0x61, 0x6c, 0x5f, 0x31, 0x2f, 0x63, 0x6f, 0x6e, 0x76, 0x31, 0x64, 0x5f,
  0x31, 0x2f, 0x63, 0x6f, 0x6e, 0x76, 0x6f, 0x6c, 0x75, 0x74, 0x69, 0x6f,
  0x6e, 0x2f, 0x45, 0x78, 0x70, 0x61, 0x6e, 0x64, 0x44, 0x69, 0x6d, 0x73,
  0x00, 0x00, 0x00, 0x00, 0x04, 0x00, 0x00, 0x00, 0x01, 0x00, 0x00, 0x00,
  0x01, 0x00, 0x00, 0x00, 0x80, 0x00, 0x00, 0x00, 0x01, 0x00, 0x00, 0x00,
  0x4e, 0xfe, 0xff, 0xff, 0x00, 0x00, 0x00, 0x01, 0x14, 0x00, 0x00, 0x00,
  0x14, 0x00, 0x00, 0x00, 0x0c, 0x00, 0x00, 0x00, 0x00, 0x00, 0x00, 0x02,
  0x20, 0x00, 0x00, 0x00, 0x14, 0xfd, 0xff, 0xff, 0x10, 0x00, 0x00, 0x00,
  0x61, 0x72, 0x69, 0x74, 0x68, 0x2e, 0x63, 0x6f, 0x6e, 0x73, 0x74, 0x61,
  0x6e, 0x74, 0x31, 0x30, 0x00, 0x00, 0x00, 0x00, 0x00, 0x00, 0x00, 0x00,
  0x8a, 0xfe, 0xff, 0xff, 0x00, 0x00, 0x00, 0x01, 0x14, 0x00, 0x00, 0x00,
  0x14, 0x00, 0x00, 0x00, 0x0b, 0x00, 0x00, 0x00, 0x00, 0x00, 0x00, 0x02,
  0x1c, 0x00, 0x00, 0x00, 0x50, 0xfd, 0xff, 0xff, 0x0f, 0x00, 0x00, 0x00,
  0x61, 0x72, 0x69, 0x74, 0x68, 0x2e, 0x63, 0x6f, 0x6e, 0x73, 0x74, 0x61,
  0x6e, 0x74, 0x39, 0x00, 0x00, 0x00, 0x00, 0x00, 0xfe, 0xfd, 0xff, 0xff,
  0x00, 0x00, 0x00, 0x01, 0x10, 0x00, 0x00, 0x00, 0x10, 0x00, 0x00, 0x00,
  0x0a, 0x00, 0x00, 0x00, 0x1c, 0x00, 0x00, 0x00, 0x84, 0xfd, 0xff, 0xff,
  0x0f, 0x00, 0x00, 0x00, 0x61, 0x72, 0x69, 0x74, 0x68, 0x2e, 0x63, 0x6f,
  0x6e, 0x73, 0x74, 0x61, 0x6e, 0x74, 0x38, 0x00, 0x02, 0x00, 0x00, 0x00,
  0x01, 0x00, 0x00, 0x00, 0x20, 0x00, 0x00, 0x00, 0x3a, 0xfe, 0xff, 0xff,
  0x00, 0x00, 0x00, 0x01, 0x10, 0x00, 0x00, 0x00, 0x10, 0x00, 0x00, 0x00,
  0x09, 0x00, 0x00, 0x00, 0x1c, 0x00, 0x00, 0x00, 0xc0, 0xfd, 0xff, 0xff,
  0x0f, 0x00, 0x00, 0x00, 0x61, 0x72, 0x69, 0x74, 0x68, 0x2e, 0x63, 0x6f,
  0x6e, 0x73, 0x74, 0x61, 0x6e, 0x74, 0x37, 0x00, 0x04, 0x00, 0x00, 0x00,
  0x10, 0x00, 0x00, 0x00, 0x01, 0x00, 0x00, 0x00, 0x03, 0x00, 0x00, 0x00,
  0x01, 0x00, 0x00, 0x00, 0x7e, 0xfe, 0xff, 0xff, 0x00, 0x00, 0x00, 0x01,
  0x10, 0x00, 0x00, 0x00, 0x10, 0x00, 0x00, 0x00, 0x08, 0x00, 0x00, 0x00,
  0x1c, 0x00, 0x00, 0x00, 0x04, 0xfe, 0xff, 0xff, 0x0f, 0x00, 0x00, 0x00,
  0x61, 0x72, 0x69, 0x74, 0x68, 0x2e, 0x63, 0x6f, 0x6e, 0x73, 0x74, 0x61,
  0x6e, 0x74, 0x36, 0x00, 0x04, 0x00, 0x00, 0x00, 0x20, 0x00, 0x00, 0x00,
  0x01, 0x00, 0x00, 0x00, 0x03, 0x00, 0x00, 0x00, 0x10, 0x00, 0x00, 0x00,
  0x86, 0xff, 0xff, 0xff, 0x00, 0x00, 0x00, 0x01, 0x14, 0x00, 0x00, 0x00,
  0x14, 0x00, 0x00, 0x00, 0x07, 0x00, 0x00, 0x00, 0x00, 0x00, 0x00, 0x02,
  0x1c, 0x00, 0x00, 0x00, 0x4c, 0xfe, 0xff, 0xff, 0x0f, 0x00, 0x00, 0x00,
  0x61, 0x72, 0x69, 0x74, 0x68, 0x2e, 0x63, 0x6f, 0x6e, 0x73, 0x74, 0x61,
  0x6e, 0x74, 0x35, 0x00, 0x01, 0x00, 0x00, 0x00, 0x03, 0x00, 0x00, 0x00,
  0xc2, 0xff, 0xff, 0xff, 0x00, 0x00, 0x00, 0x01, 0x14, 0x00, 0x00, 0x00,
  0x14, 0x00, 0x00, 0x00, 0x06, 0x00, 0x00, 0x00, 0x00, 0x00, 0x00, 0x02,
  0x1c, 0x00, 0x00, 0x00, 0x88, 0xfe, 0xff, 0xff, 0x0f, 0x00, 0x00, 0x00,
  0x61, 0x72, 0x69, 0x74, 0x68, 0x2e, 0x63, 0x6f, 0x6e, 0x73, 0x74, 0x61,
  0x6e, 0x74, 0x34, 0x00, 0x01, 0x00, 0x00, 0x00, 0x03, 0x00, 0x00, 0x00,
  0x00, 0x00, 0x16, 0x00, 0x1c, 0x00, 0x18, 0x00, 0x17, 0x00, 0x10, 0x00,
  0x0c, 0x00, 0x08, 0x00, 0x00, 0x00, 0x00, 0x00, 0x00, 0x00, 0x07, 0x00,
  0x16, 0x00, 0x00, 0x00, 0x00, 0x00, 0x00, 0x01, 0x14, 0x00, 0x00, 0x00,
  0x14, 0x00, 0x00, 0x00, 0x05, 0x00, 0x00, 0x00, 0x00, 0x00, 0x00, 0x02,
  0x1c, 0x00, 0x00, 0x00, 0xdc, 0xfe, 0xff, 0xff, 0x0f, 0x00, 0x00, 0x00,
  0x61, 0x72, 0x69, 0x74, 0x68, 0x2e, 0x63, 0x6f, 0x6e, 0x73, 0x74, 0x61,
  0x6e, 0x74, 0x33, 0x00, 0x01, 0x00, 0x00, 0x00, 0x03, 0x00, 0x00, 0x00,
  0x8e, 0xff, 0xff, 0xff, 0x00, 0x00, 0x00, 0x01, 0x10, 0x00, 0x00, 0x00,
  0x10, 0x00, 0x00, 0x00, 0x04, 0x00, 0x00, 0x00, 0x1c, 0x00, 0x00, 0x00,
  0x14, 0xff, 0xff, 0xff, 0x0f, 0x00, 0x00, 0x00, 0x61, 0x72, 0x69, 0x74,
  0x68, 0x2e, 0x63, 0x6f, 0x6e, 0x73, 0x74, 0x61, 0x6e, 0x74, 0x32, 0x00,
  0x01, 0x00, 0x00, 0x00, 0x01, 0x00, 0x00, 0x00, 0xc6, 0xff, 0xff, 0xff,
  0x00, 0x00, 0x00, 0x01, 0x10, 0x00, 0x00, 0x00, 0x10, 0x00, 0x00, 0x00,
  0x03, 0x00, 0x00, 0x00, 0x1c, 0x00, 0x00, 0x00, 0x4c, 0xff, 0xff, 0xff,
  0x0f, 0x00, 0x00, 0x00, 0x61, 0x72, 0x69, 0x74, 0x68, 0x2e, 0x63, 0x6f,
  0x6e, 0x73, 0x74, 0x61, 0x6e, 0x74, 0x31, 0x00, 0x01, 0x00, 0x00, 0x00,
  0x10, 0x00, 0x00, 0x00, 0x00, 0x00, 0x16, 0x00, 0x18, 0x00, 0x14, 0x00,
  0x00, 0x00, 0x10, 0x00, 0x0c, 0x00, 0x08, 0x00, 0x00, 0x00, 0x00, 0x00,
  0x00, 0x00, 0x07, 0x00, 0x16, 0x00, 0x00, 0x00, 0x00, 0x00, 0x00, 0x01,
  0x10, 0x00, 0x00, 0x00, 0x10, 0x00, 0x00, 0x00, 0x02, 0x00, 0x00, 0x00,
  0x1c, 0x00, 0x00, 0x00, 0x9c, 0xff, 0xff, 0xff, 0x0e, 0x00, 0x00, 0x00,
  0x61, 0x72, 0x69, 0x74, 0x68, 0x2e, 0x63, 0x6f, 0x6e, 0x73, 0x74, 0x61,
  0x6e, 0x74, 0x00, 0x00, 0x01, 0x00, 0x00, 0x00, 0x20, 0x00, 0x00, 0x00,
  0x00, 0x00, 0x16, 0x00, 0x1c, 0x00, 0x18, 0x00, 0x00, 0x00, 0x14, 0x00,
  0x10, 0x00, 0x0c, 0x00, 0x00, 0x00, 0x00, 0x00, 0x08, 0x00, 0x07, 0x00,
  0x16, 0x00, 0x00, 0x00, 0x00, 0x00, 0x00, 0x01, 0x14, 0x00, 0x00, 0x00,
  0x24, 0x00, 0x00, 0x00, 0x24, 0x00, 0x00, 0x00, 0x01, 0x00, 0x00, 0x00,
  0x40, 0x00, 0x00, 0x00, 0x03, 0x00, 0x00, 0x00, 0xff, 0xff, 0xff, 0xff,
  0x80, 0x00, 0x00, 0x00, 0x01, 0x00, 0x00, 0x00, 0x04, 0x00, 0x04, 0x00,
  0x04, 0x00, 0x00, 0x00, 0x1e, 0x00, 0x00, 0x00, 0x73, 0x65, 0x72, 0x76,
  0x69, 0x6e, 0x67, 0x5f, 0x64, 0x65, 0x66, 0x61, 0x75, 0x6c, 0x74, 0x5f,
  0x6b, 0x65, 0x72, 0x61, 0x73, 0x5f, 0x74, 0x65, 0x6e, 0x73, 0x6f, 0x72,
  0x3a, 0x30, 0x00, 0x00, 0x03, 0x00, 0x00, 0x00, 0x01, 0x00, 0x00, 0x00,
  0x80, 0x00, 0x00, 0x00, 0x01, 0x00, 0x00, 0x00, 0x07, 0x00, 0x00, 0x00,
  0x70, 0x00, 0x00, 0x00, 0x54, 0x00, 0x00, 0x00, 0x44, 0x00, 0x00, 0x00,
  0x34, 0x00, 0x00, 0x00, 0x24, 0x00, 0x00, 0x00, 0x14, 0x00, 0x00, 0x00,
  0x04, 0x00, 0x00, 0x00, 0xb8, 0xff, 0xff, 0xff, 0x0e, 0x00, 0x00, 0x00,
  0x00, 0x00, 0x00, 0x0e, 0xc4, 0xff, 0xff, 0xff, 0x09, 0x00, 0x00, 0x00,
  0x00, 0x00, 0x00, 0x09, 0xd0, 0xff, 0xff, 0xff, 0x28, 0x00, 0x00, 0x00,
  0x00, 0x00, 0x00, 0x28, 0xdc, 0xff, 0xff, 0xff, 0x11, 0x00, 0x00, 0x00,
  0x00, 0x00, 0x00, 0x11, 0xe8, 0xff, 0xff, 0xff, 0x16, 0x00, 0x00, 0x00,
  0x00, 0x00, 0x00, 0x16, 0xf4, 0xff, 0xff, 0xff, 0x03, 0x00, 0x00, 0x00,
  0x00, 0x00, 0x00, 0x03, 0x0c, 0x00, 0x0c, 0x00, 0x0b, 0x00, 0x00, 0x00,
  0x00, 0x00, 0x04, 0x00, 0x0c, 0x00, 0x00, 0x00, 0x46, 0x00, 0x00, 0x00,
  0x00, 0x00, 0x00, 0x46,
};

const unsigned int g_pdm_model_len = 10984;
